/* Generated by Edge Impulse
 *
 * Permission is hereby granted, free of charge, to any person obtaining a copy
 * of this software and associated documentation files (the "Software"), to deal
 * in the Software without restriction, including without limitation the rights
 * to use, copy, modify, merge, publish, distribute, sublicense, and/or sell
 * copies of the Software, and to permit persons to whom the Software is
 * furnished to do so, subject to the following conditions:
 *
 * The above copyright notice and this permission notice shall be included in
 * all copies or substantial portions of the Software.
 *
 * THE SOFTWARE IS PROVIDED "AS IS", WITHOUT WARRANTY OF ANY KIND, EXPRESS OR
 * IMPLIED, INCLUDING BUT NOT LIMITED TO THE WARRANTIES OF MERCHANTABILITY,
 * FITNESS FOR A PARTICULAR PURPOSE AND NONINFRINGEMENT. IN NO EVENT SHALL THE
 * AUTHORS OR COPYRIGHT HOLDERS BE LIABLE FOR ANY CLAIM, DAMAGES OR OTHER
 * LIABILITY, WHETHER IN AN ACTION OF CONTRACT, TORT OR OTHERWISE, ARISING FROM,
 * OUT OF OR IN CONNECTION WITH THE SOFTWARE OR THE USE OR OTHER DEALINGS IN THE
 * SOFTWARE.
 */

#ifndef _EI_CLASSIFIER_TFLITE_ANOMALY_36_H_
#define _EI_CLASSIFIER_TFLITE_ANOMALY_36_H_

#define EI_CLASSIFIER_TFLITE_ANOMALY_36_ARENA_SIZE     6924
const size_t tflite_anomaly_36_arena_size = 6924;

#ifdef EI_CLASSIFIER_TFLITE_ARENA_SIZE
#if EI_CLASSIFIER_TFLITE_ARENA_SIZE < EI_CLASSIFIER_TFLITE_ANOMALY_36_ARENA_SIZE
#undef EI_CLASSIFIER_TFLITE_ARENA_SIZE
#define EI_CLASSIFIER_TFLITE_ARENA_SIZE EI_CLASSIFIER_TFLITE_ANOMALY_36_ARENA_SIZE
#endif // #if EI_CLASSIFIER_TFLITE_ARENA_SIZE < EI_CLASSIFIER_TFLITE_ANOMALY_36_ARENA_SIZE
#else
#define EI_CLASSIFIER_TFLITE_ARENA_SIZE EI_CLASSIFIER_TFLITE_ANOMALY_36_ARENA_SIZE
#endif // #ifdef EI_CLASSIFIER_TFLITE_ARENA_SIZE

#if defined __GNUC__
#define ALIGN(X) __attribute__((aligned(X)))
#elif defined _MSC_VER
#define ALIGN(X) __declspec(align(X))
#elif defined __TASKING__
#define ALIGN(X) __align(X)
#else
#define ALIGN(X)
#endif
ALIGN(16) const unsigned char tflite_anomaly_36[] = {
  0x1c, 0x00, 0x00, 0x00, 0x54, 0x46, 0x4c, 0x33, 0x14, 0x00, 0x20, 0x00,
  0x1c, 0x00, 0x18, 0x00, 0x14, 0x00, 0x10, 0x00, 0x0c, 0x00, 0x00, 0x00,
  0x08, 0x00, 0x04, 0x00, 0x14, 0x00, 0x00, 0x00, 0x1c, 0x00, 0x00, 0x00,
  0x1c, 0x00, 0x00, 0x00, 0x74, 0x00, 0x00, 0x00, 0x1c, 0x0b, 0x00, 0x00,
  0x2c, 0x0b, 0x00, 0x00, 0x24, 0x22, 0x00, 0x00, 0x03, 0x00, 0x00, 0x00,
  0x00, 0x00, 0x00, 0x00, 0x02, 0x00, 0x00, 0x00, 0x34, 0x00, 0x00, 0x00,
  0x04, 0x00, 0x00, 0x00, 0xdc, 0xff, 0xff, 0xff, 0x23, 0x00, 0x00, 0x00,
  0x04, 0x00, 0x00, 0x00, 0x13, 0x00, 0x00, 0x00, 0x43, 0x4f, 0x4e, 0x56,
  0x45, 0x52, 0x53, 0x49, 0x4f, 0x4e, 0x5f, 0x4d, 0x45, 0x54, 0x41, 0x44,
  0x41, 0x54, 0x41, 0x00, 0x08, 0x00, 0x0c, 0x00, 0x08, 0x00, 0x04, 0x00,
  0x08, 0x00, 0x00, 0x00, 0x22, 0x00, 0x00, 0x00, 0x04, 0x00, 0x00, 0x00,
  0x13, 0x00, 0x00, 0x00, 0x6d, 0x69, 0x6e, 0x5f, 0x72, 0x75, 0x6e, 0x74,
  0x69, 0x6d, 0x65, 0x5f, 0x76, 0x65, 0x72, 0x73, 0x69, 0x6f, 0x6e, 0x00,
  0x24, 0x00, 0x00, 0x00, 0xa4, 0x0a, 0x00, 0x00, 0x9c, 0x0a, 0x00, 0x00,
  0x4c, 0x09, 0x00, 0x00, 0xf4, 0x08, 0x00, 0x00, 0xdc, 0x08, 0x00, 0x00,
  0xc8, 0x08, 0x00, 0x00, 0xb4, 0x08, 0x00, 0x00, 0x98, 0x08, 0x00, 0x00,
  0x48, 0x02, 0x00, 0x00, 0xf8, 0x01, 0x00, 0x00, 0xa8, 0x01, 0x00, 0x00,
  0x58, 0x01, 0x00, 0x00, 0x44, 0x01, 0x00, 0x00, 0x30, 0x01, 0x00, 0x00,
  0x28, 0x01, 0x00, 0x00, 0x20, 0x01, 0x00, 0x00, 0x18, 0x01, 0x00, 0x00,
  0x10, 0x01, 0x00, 0x00, 0x08, 0x01, 0x00, 0x00, 0x00, 0x01, 0x00, 0x00,
  0xf8, 0x00, 0x00, 0x00, 0xf0, 0x00, 0x00, 0x00, 0xe8, 0x00, 0x00, 0x00,
  0xe0, 0x00, 0x00, 0x00, 0xd8, 0x00, 0x00, 0x00, 0xd0, 0x00, 0x00, 0x00,
  0xc8, 0x00, 0x00, 0x00, 0xc0, 0x00, 0x00, 0x00, 0xb8, 0x00, 0x00, 0x00,
  0xb0, 0x00, 0x00, 0x00, 0xa8, 0x00, 0x00, 0x00, 0xa0, 0x00, 0x00, 0x00,
  0x98, 0x00, 0x00, 0x00, 0x90, 0x00, 0x00, 0x00, 0x70, 0x00, 0x00, 0x00,
  0x04, 0x00, 0x00, 0x00, 0x42, 0xf7, 0xff, 0xff, 0x04, 0x00, 0x00, 0x00,
  0x5c, 0x00, 0x00, 0x00, 0x0c, 0x00, 0x00, 0x00, 0x08, 0x00, 0x0e, 0x00,
  0x08, 0x00, 0x04, 0x00, 0x08, 0x00, 0x00, 0x00, 0x14, 0x00, 0x00, 0x00,
  0x2c, 0x00, 0x00, 0x00, 0x00, 0x00, 0x0a, 0x00, 0x0c, 0x00, 0x08, 0x00,
  0x00, 0x00, 0x07, 0x00, 0x0a, 0x00, 0x00, 0x00, 0x00, 0x00, 0x00, 0x01,
  0x04, 0x00, 0x00, 0x00, 0x00, 0x00, 0x00, 0x00, 0x00, 0x00, 0x0a, 0x00,
  0x10, 0x00, 0x0c, 0x00, 0x08, 0x00, 0x04, 0x00, 0x0a, 0x00, 0x00, 0x00,
  0x06, 0x00, 0x00, 0x00, 0x02, 0x00, 0x00, 0x00, 0x04, 0x00, 0x00, 0x00,
  0x06, 0x00, 0x00, 0x00, 0x32, 0x2e, 0x31, 0x31, 0x2e, 0x31, 0x00, 0x00,
  0xaa, 0xf7, 0xff, 0xff, 0x04, 0x00, 0x00, 0x00, 0x10, 0x00, 0x00, 0x00,
  0x31, 0x2e, 0x31, 0x34, 0x2e, 0x30, 0x00, 0x00, 0x00, 0x00, 0x00, 0x00,
  0x00, 0x00, 0x00, 0x00, 0xf0, 0xde, 0xff, 0xff, 0xf4, 0xde, 0xff, 0xff,
  0xf8, 0xde, 0xff, 0xff, 0xfc, 0xde, 0xff, 0xff, 0x00, 0xdf, 0xff, 0xff,
  0x04, 0xdf, 0xff, 0xff, 0x08, 0xdf, 0xff, 0xff, 0x0c, 0xdf, 0xff, 0xff,
  0x10, 0xdf, 0xff, 0xff, 0x14, 0xdf, 0xff, 0xff, 0x18, 0xdf, 0xff, 0xff,
  0x1c, 0xdf, 0xff, 0xff, 0x20, 0xdf, 0xff, 0xff, 0x24, 0xdf, 0xff, 0xff,
  0x28, 0xdf, 0xff, 0xff, 0x2c, 0xdf, 0xff, 0xff, 0x30, 0xdf, 0xff, 0xff,
  0x34, 0xdf, 0xff, 0xff, 0x38, 0xdf, 0xff, 0xff, 0x3c, 0xdf, 0xff, 0xff,
  0x16, 0xf8, 0xff, 0xff, 0x04, 0x00, 0x00, 0x00, 0x04, 0x00, 0x00, 0x00,
  0x77, 0x9f, 0x5b, 0x40, 0x26, 0xf8, 0xff, 0xff, 0x04, 0x00, 0x00, 0x00,
  0x04, 0x00, 0x00, 0x00, 0x5f, 0x39, 0xaa, 0x40, 0x36, 0xf8, 0xff, 0xff,
  0x04, 0x00, 0x00, 0x00, 0x40, 0x00, 0x00, 0x00, 0xb9, 0x07, 0x13, 0x41,
  0xb9, 0x07, 0x13, 0x41, 0xb9, 0x07, 0x13, 0x41, 0xb9, 0x07, 0x13, 0x41,
  0xb9, 0x07, 0x13, 0x41, 0xb9, 0x07, 0x13, 0x41, 0xb9, 0x07, 0x13, 0x41,
  0xb9, 0x07, 0x13, 0x41, 0xb9, 0x07, 0x13, 0x41, 0xb9, 0x07, 0x13, 0x41,
  0xb9, 0x07, 0x13, 0x41, 0xb9, 0x07, 0x13, 0x41, 0xb9, 0x07, 0x13, 0x41,
  0xb9, 0x07, 0x13, 0x41, 0xb9, 0x07, 0x13, 0x41, 0xb9, 0x07, 0x13, 0x41,
  0x82, 0xf8, 0xff, 0xff, 0x04, 0x00, 0x00, 0x00, 0x40, 0x00, 0x00, 0x00,
  0x00, 0x00, 0x00, 0xbf, 0x00, 0x00, 0x00, 0xbf, 0x00, 0x00, 0x00, 0xbf,
  0x00, 0x00, 0x00, 0xbf, 0x00, 0x00, 0x00, 0xbf, 0x00, 0x00, 0x00, 0xbf,
  0x00, 0x00, 0x00, 0xbf, 0x00, 0x00, 0x00, 0xbf, 0x00, 0x00, 0x00, 0xbf,
  0x00, 0x00, 0x00, 0xbf, 0x00, 0x00, 0x00, 0xbf, 0x00, 0x00, 0x00, 0xbf,
  0x00, 0x00, 0x00, 0xbf, 0x00, 0x00, 0x00, 0xbf, 0x00, 0x00, 0x00, 0xbf,
  0x00, 0x00, 0x00, 0xbf, 0xce, 0xf8, 0xff, 0xff, 0x04, 0x00, 0x00, 0x00,
  0x40, 0x00, 0x00, 0x00, 0x00, 0x00, 0x80, 0x3f, 0x00, 0x00, 0x80, 0x3f,
  0x00, 0x00, 0x80, 0x3f, 0x00, 0x00, 0x80, 0x3f, 0x00, 0x00, 0x80, 0x3f,
  0x00, 0x00, 0x80, 0x3f, 0x00, 0x00, 0x80, 0x3f, 0x00, 0x00, 0x80, 0x3f,
  0x00, 0x00, 0x80, 0x3f, 0x00, 0x00, 0x80, 0x3f, 0x00, 0x00, 0x80, 0x3f,
  0x00, 0x00, 0x80, 0x3f, 0x00, 0x00, 0x80, 0x3f, 0x00, 0x00, 0x80, 0x3f,
  0x00, 0x00, 0x80, 0x3f, 0x00, 0x00, 0x80, 0x3f, 0x1a, 0xf9, 0xff, 0xff,
  0x04, 0x00, 0x00, 0x00, 0x40, 0x06, 0x00, 0x00, 0x79, 0xaa, 0xbb, 0x3d,
  0x00, 0x00, 0x00, 0x00, 0x00, 0x00, 0x00, 0x00, 0x00, 0x00, 0x00, 0x00,
  0x00, 0x00, 0x00, 0x00, 0xe3, 0xdd, 0xaf, 0xbb, 0xf9, 0xc0, 0x51, 0x3f,
  0x00, 0x00, 0x00, 0x00, 0x00, 0x00, 0x00, 0x00, 0x00, 0x00, 0x00, 0x00,
  0xa6, 0x3f, 0xe2, 0xbb, 0xc2, 0x39, 0xe4, 0xbe, 0xfb, 0x48, 0x60, 0x40,
  0x00, 0x00, 0x00, 0x00, 0x00, 0x00, 0x00, 0x00, 0x19, 0x58, 0x71, 0x3a,
  0xd3, 0x1f, 0x10, 0xbd, 0xca, 0x5d, 0x29, 0xc2, 0x77, 0xd1, 0x2d, 0x42,
  0x00, 0x00, 0x00, 0x00, 0xa2, 0xcc, 0x26, 0xb9, 0x33, 0x20, 0xdf, 0xbc,
  0xa5, 0x41, 0x2d, 0x43, 0x1a, 0x73, 0xaf, 0xc3, 0x09, 0xf7, 0x31, 0x43,
  0x3c, 0xdb, 0xc0, 0x3d, 0x00, 0x00, 0x00, 0x00, 0x00, 0x00, 0x00, 0x00,
  0x00, 0x00, 0x00, 0x00, 0x00, 0x00, 0x00, 0x00, 0xef, 0x75, 0x9b, 0xbd,
  0x20, 0x75, 0xa5, 0x3d, 0x00, 0x00, 0x00, 0x00, 0x00, 0x00, 0x00, 0x00,
  0x00, 0x00, 0x00, 0x00, 0xb4, 0x5d, 0x10, 0xbe, 0x62, 0x52, 0xfc, 0xbd,
  0x9c, 0xfd, 0x02, 0x43, 0x00, 0x00, 0x00, 0x00, 0x00, 0x00, 0x00, 0x00,
  0x37, 0x39, 0xf8, 0x3c, 0x4a, 0xb0, 0x0e, 0xbe, 0x8a, 0xe8, 0xc8, 0xc3,
  0xb6, 0xf8, 0x05, 0x44, 0x00, 0x00, 0x00, 0x00, 0xfd, 0x62, 0x06, 0x3d,
  0x83, 0xfb, 0xc9, 0xbd, 0x7e, 0xb7, 0x4c, 0x43, 0x24, 0xb1, 0x1a, 0xc4,
  0xed, 0x37, 0xfe, 0x43, 0x4a, 0xcc, 0x03, 0x3e, 0x00, 0x00, 0x00, 0x00,
  0x00, 0x00, 0x00, 0x00, 0x00, 0x00, 0x00, 0x00, 0x00, 0x00, 0x00, 0x00,
  0x7b, 0xa0, 0xb2, 0x3c, 0xaa, 0xc1, 0xe2, 0x3d, 0x00, 0x00, 0x00, 0x00,
  0x00, 0x00, 0x00, 0x00, 0x00, 0x00, 0x00, 0x00, 0x33, 0x0f, 0x91, 0xba,
  0xdc, 0x05, 0x29, 0xbe, 0xcd, 0x09, 0x70, 0x42, 0x00, 0x00, 0x00, 0x00,
  0x00, 0x00, 0x00, 0x00, 0xcb, 0x14, 0x0c, 0x3d, 0xc4, 0x49, 0x51, 0xbd,
  0x37, 0x32, 0x17, 0xc4, 0x5e, 0x16, 0x19, 0x44, 0x00, 0x00, 0x00, 0x00,
  0x75, 0x77, 0x1f, 0x3d, 0x2a, 0x96, 0x3f, 0xbd, 0x7c, 0xa8, 0x81, 0xc2,
  0xf9, 0x5b, 0x06, 0xc4, 0x46, 0xd9, 0x18, 0x44, 0x38, 0xe2, 0xcc, 0x3d,
  0x00, 0x00, 0x00, 0x00, 0x00, 0x00, 0x00, 0x00, 0x00, 0x00, 0x00, 0x00,
  0x00, 0x00, 0x00, 0x00, 0x4e, 0x25, 0x30, 0xbd, 0xf8, 0x04, 0x93, 0x3d,
  0x00, 0x00, 0x00, 0x00, 0x00, 0x00, 0x00, 0x00, 0x00, 0x00, 0x00, 0x00,
  0xcb, 0x00, 0x3a, 0xbe, 0x9d, 0x73, 0xa9, 0xbe, 0xca, 0x13, 0x58, 0x43,
  0x00, 0x00, 0x00, 0x00, 0x00, 0x00, 0x00, 0x00, 0xe0, 0x9c, 0x1d, 0xbb,
  0xdf, 0xda, 0x04, 0xbf, 0x1b, 0xac, 0xe7, 0xc3, 0x42, 0xc8, 0x4a, 0x44,
  0x00, 0x00, 0x00, 0x00, 0x9a, 0x95, 0xe0, 0x3c, 0x63, 0x8e, 0x4f, 0xbf,
  0x8a, 0xec, 0x5b, 0xc0, 0x88, 0x85, 0x70, 0xc3, 0x4a, 0x14, 0x45, 0x44,
  0x4e, 0xc8, 0xc6, 0x3d, 0x00, 0x00, 0x00, 0x00, 0x00, 0x00, 0x00, 0x00,
  0x00, 0x00, 0x00, 0x00, 0x00, 0x00, 0x00, 0x00, 0x80, 0x5b, 0x81, 0xbd,
  0xdf, 0x43, 0xf7, 0x3e, 0x00, 0x00, 0x00, 0x00, 0x00, 0x00, 0x00, 0x00,
  0x00, 0x00, 0x00, 0x00, 0x86, 0xc5, 0x49, 0xbd, 0x28, 0x1f, 0x9b, 0xbf,
  0x14, 0x23, 0xfe, 0x42, 0x00, 0x00, 0x00, 0x00, 0x00, 0x00, 0x00, 0x00,
  0x94, 0x77, 0x34, 0xbc, 0x27, 0xfd, 0x1e, 0xc0, 0x6e, 0xea, 0xb5, 0xc3,
  0x7e, 0x8f, 0x23, 0x44, 0x00, 0x00, 0x00, 0x00, 0x48, 0x12, 0xcc, 0xbb,
  0x31, 0xb2, 0x0f, 0xc0, 0xa5, 0x8f, 0x57, 0x43, 0xd3, 0x65, 0xfd, 0xc3,
  0xa2, 0xc3, 0x0a, 0x44, 0x98, 0xce, 0xe0, 0x3d, 0x00, 0x00, 0x00, 0x00,
  0x00, 0x00, 0x00, 0x00, 0x00, 0x00, 0x00, 0x00, 0x00, 0x00, 0x00, 0x00,
  0x28, 0x2b, 0xef, 0xbc, 0x61, 0x67, 0x82, 0x3d, 0x00, 0x00, 0x00, 0x00,
  0x00, 0x00, 0x00, 0x00, 0x00, 0x00, 0x00, 0x00, 0xad, 0x78, 0x17, 0xbe,
  0x00, 0x70, 0x4c, 0xbe, 0x40, 0x77, 0x2e, 0x43, 0x00, 0x00, 0x00, 0x00,
  0x00, 0x00, 0x00, 0x00, 0xc8, 0x64, 0xa3, 0x3c, 0xb2, 0xd1, 0xa1, 0xbe,
  0x94, 0x63, 0xcc, 0xc3, 0xc6, 0x7f, 0x28, 0x44, 0x00, 0x00, 0x00, 0x00,
  0xcc, 0x0a, 0x1a, 0x3d, 0x36, 0x1e, 0x9d, 0xbe, 0x69, 0xa7, 0x18, 0x43,
  0xd4, 0xd5, 0xef, 0xc3, 0xd3, 0xf7, 0x11, 0x44, 0xae, 0xbc, 0xca, 0x3d,
  0x00, 0x00, 0x00, 0x00, 0x00, 0x00, 0x00, 0x00, 0x00, 0x00, 0x00, 0x00,
  0x00, 0x00, 0x00, 0x00, 0x1d, 0x34, 0x3a, 0xbd, 0x22, 0xd3, 0x97, 0x3d,
  0x00, 0x00, 0x00, 0x00, 0x00, 0x00, 0x00, 0x00, 0x00, 0x00, 0x00, 0x00,
  0x0a, 0x5f, 0x44, 0xbe, 0x6e, 0xa0, 0xcd, 0xbe, 0x09, 0x91, 0x6d, 0x43,
  0x00, 0x00, 0x00, 0x00, 0x00, 0x00, 0x00, 0x00, 0xa1, 0x4a, 0x68, 0xbc,
  0x11, 0x7f, 0x0f, 0xbf, 0xf6, 0xcc, 0xd9, 0xc3, 0x37, 0x30, 0x41, 0x44,
  0x00, 0x00, 0x00, 0x00, 0x65, 0xd3, 0x51, 0x3c, 0x9a, 0x2a, 0x39, 0xbf,
  0x8a, 0x33, 0x7f, 0x42, 0x41, 0x1d, 0xa4, 0xc3, 0xe6, 0x0b, 0x2f, 0x44,
  0xa7, 0x07, 0xbb, 0x3d, 0x00, 0x00, 0x00, 0x00, 0x00, 0x00, 0x00, 0x00,
  0x00, 0x00, 0x00, 0x00, 0x00, 0x00, 0x00, 0x00, 0x84, 0x76, 0x8e, 0xbd,
  0x2f, 0x79, 0x7d, 0x3d, 0x00, 0x00, 0x00, 0x00, 0x00, 0x00, 0x00, 0x00,
  0x00, 0x00, 0x00, 0x00, 0x01, 0xbb, 0xe4, 0xbd, 0xc3, 0x9f, 0x0c, 0xbe,
  0x91, 0x77, 0x04, 0x43, 0x00, 0x00, 0x00, 0x00, 0x00, 0x00, 0x00, 0x00,
  0x8b, 0x49, 0x84, 0x3d, 0xd3, 0xda, 0x48, 0xbe, 0x5c, 0x2e, 0xe4, 0xc3,
  0xea, 0x94, 0x1c, 0x44, 0x00, 0x00, 0x00, 0x00, 0xa3, 0xf2, 0x93, 0x3d,
  0xfb, 0xa2, 0x3a, 0xbe, 0x90, 0xf9, 0xf1, 0x42, 0xa2, 0x8e, 0x04, 0xc4,
  0xc9, 0xa5, 0x0d, 0x44, 0xcc, 0xd2, 0xcd, 0x3d, 0x00, 0x00, 0x00, 0x00,
  0x00, 0x00, 0x00, 0x00, 0x00, 0x00, 0x00, 0x00, 0x00, 0x00, 0x00, 0x00,
  0x3b, 0x10, 0xba, 0xbc, 0x2d, 0xac, 0x65, 0x3d, 0x00, 0x00, 0x00, 0x00,
  0x00, 0x00, 0x00, 0x00, 0x00, 0x00, 0x00, 0x00, 0xcc, 0x7b, 0x91, 0xbd,
  0xac, 0x22, 0x78, 0xbe, 0x25, 0xcc, 0x83, 0x42, 0x00, 0x00, 0x00, 0x00,
  0x00, 0x00, 0x00, 0x00, 0x13, 0xce, 0xd3, 0x3d, 0x8a, 0x60, 0xd4, 0xbd,
  0x83, 0x58, 0xb1, 0xc3, 0x44, 0xb0, 0xbd, 0x43, 0x00, 0x00, 0x00, 0x00,
  0x05, 0x82, 0x75, 0x3d, 0x69, 0x69, 0x0e, 0xbd, 0x44, 0x7a, 0x88, 0x43,
  0x93, 0xe8, 0x33, 0xc4, 0x23, 0xaa, 0xe3, 0x43, 0x3f, 0x6d, 0xba, 0x3d,
  0x00, 0x00, 0x00, 0x00, 0x00, 0x00, 0x00, 0x00, 0x00, 0x00, 0x00, 0x00,
  0x00, 0x00, 0x00, 0x00, 0x2c, 0xb9, 0xde, 0xbb, 0x05, 0x15, 0x9c, 0x3d,
  0x00, 0x00, 0x00, 0x00, 0x00, 0x00, 0x00, 0x00, 0x00, 0x00, 0x00, 0x00,
  0xe3, 0x77, 0x0e, 0xbe, 0x79, 0x32, 0xbc, 0xbe, 0x30, 0x94, 0x5d, 0x43,
  0x00, 0x00, 0x00, 0x00, 0x00, 0x00, 0x00, 0x00, 0xf4, 0x6e, 0xea, 0x3b,
  0xbd, 0x86, 0xe4, 0xbe, 0x0e, 0x0f, 0xe7, 0xc3, 0xef, 0x92, 0x42, 0x44,
  0x00, 0x00, 0x00, 0x00, 0xc4, 0x4e, 0x09, 0x3d, 0x0b, 0xd6, 0x1a, 0xbf,
  0x1a, 0x91, 0xa3, 0x41, 0x17, 0xb6, 0x9b, 0xc3, 0xbe, 0x76, 0x35, 0x44,
  0xb8, 0x1e, 0xd6, 0x3d, 0x00, 0x00, 0x00, 0x00, 0x00, 0x00, 0x00, 0x00,
  0x00, 0x00, 0x00, 0x00, 0x00, 0x00, 0x00, 0x00, 0xe1, 0x8e, 0x56, 0xbd,
  0xd9, 0x5f, 0xab, 0x3d, 0x00, 0x00, 0x00, 0x00, 0x00, 0x00, 0x00, 0x00,
  0x00, 0x00, 0x00, 0x00, 0xfa, 0xc4, 0x93, 0xbe, 0x06, 0xd6, 0x0d, 0xbf,
  0x07, 0x2b, 0x9b, 0x43, 0x00, 0x00, 0x00, 0x00, 0x00, 0x00, 0x00, 0x00,
  0x7c, 0x98, 0xb9, 0xbb, 0x5c, 0x28, 0x19, 0xbf, 0xa1, 0x5f, 0xe2, 0xc3,
  0xeb, 0x7a, 0x46, 0x44, 0x00, 0x00, 0x00, 0x00, 0xec, 0x9d, 0x78, 0x3d,
  0x0a, 0xdc, 0x4e, 0xbf, 0x7b, 0x97, 0x15, 0xc1, 0x86, 0xba, 0x8e, 0xc3,
  0xfd, 0x3f, 0x3d, 0x44, 0xaf, 0x73, 0xcc, 0x3d, 0x00, 0x00, 0x00, 0x00,
  0x00, 0x00, 0x00, 0x00, 0x00, 0x00, 0x00, 0x00, 0x00, 0x00, 0x00, 0x00,
  0x3e, 0xc5, 0xdf, 0xbc, 0xf6, 0x80, 0x9e, 0x3d, 0x00, 0x00, 0x00, 0x00,
  0x00, 0x00, 0x00, 0x00, 0x00, 0x00, 0x00, 0x00, 0xc1, 0xd7, 0x17, 0xbd,
  0x4d, 0x4f, 0x46, 0xbe, 0x15, 0x33, 0x0a, 0x42, 0x00, 0x00, 0x00, 0x00,
  0x00, 0x00, 0x00, 0x00, 0xd4, 0xd8, 0x02, 0x3d, 0x8a, 0x2e, 0xcf, 0xbc,
  0xc4, 0x6c, 0xf5, 0xc3, 0xe4, 0x87, 0xf7, 0x43, 0x00, 0x00, 0x00, 0x00,
  0xc1, 0x34, 0xc2, 0x3c, 0xc4, 0x13, 0x6f, 0xbb, 0x8b, 0xc4, 0x20, 0x43,
  0xc2, 0xee, 0x1f, 0xc4, 0x8d, 0xb3, 0xf0, 0x43, 0x9c, 0x46, 0xcd, 0x3d,
  0x00, 0x00, 0x00, 0x00, 0x00, 0x00, 0x00, 0x00, 0x00, 0x00, 0x00, 0x00,
  0x00, 0x00, 0x00, 0x00, 0x53, 0x38, 0x81, 0xbd, 0xd7, 0x0d, 0x63, 0x3d,
  0x00, 0x00, 0x00, 0x00, 0x00, 0x00, 0x00, 0x00, 0x00, 0x00, 0x00, 0x00,
  0x5b, 0xf9, 0x45, 0xbe, 0xd9, 0x8a, 0x75, 0xbe, 0x8b, 0xac, 0x3f, 0x43,
  0x00, 0x00, 0x00, 0x00, 0x00, 0x00, 0x00, 0x00, 0xee, 0x3a, 0x7f, 0x3d,
  0x56, 0x4f, 0x7c, 0xbe, 0xc8, 0x81, 0xee, 0xc3, 0x79, 0x7a, 0x25, 0x44,
  0x00, 0x00, 0x00, 0x00, 0xc2, 0x87, 0xbb, 0x3d, 0x3f, 0x16, 0x76, 0xbe,
  0xbd, 0xbf, 0x8a, 0x42, 0x30, 0x9a, 0xf4, 0xc3, 0x52, 0xd9, 0x15, 0x44,
  0xc2, 0x09, 0xc9, 0x3d, 0x00, 0x00, 0x00, 0x00, 0x00, 0x00, 0x00, 0x00,
  0x00, 0x00, 0x00, 0x00, 0x00, 0x00, 0x00, 0x00, 0x52, 0x64, 0xed, 0xbc,
  0x38, 0x38, 0x1f, 0x3f, 0x00, 0x00, 0x00, 0x00, 0x00, 0x00, 0x00, 0x00,
  0x00, 0x00, 0x00, 0x00, 0x15, 0x90, 0x5e, 0xbd, 0x76, 0x5a, 0xaf, 0xbf,
  0x6d, 0xc9, 0x2d, 0x42, 0x00, 0x00, 0x00, 0x00, 0x00, 0x00, 0x00, 0x00,
  0xe1, 0x12, 0x8f, 0x3d, 0x32, 0x0c, 0x25, 0xbe, 0x9a, 0x7d, 0x95, 0xc3,
  0x5d, 0xee, 0x98, 0x43, 0x00, 0x00, 0x00, 0x00, 0x87, 0x8f, 0x07, 0x3d,
  0x5d, 0xb1, 0x30, 0xbd, 0x18, 0x6d, 0x9f, 0x43, 0xc7, 0x1f, 0x3c, 0xc4,
  0x88, 0x35, 0xda, 0x43, 0x3f, 0xa9, 0xb5, 0x3d, 0x00, 0x00, 0x00, 0x00,
  0x00, 0x00, 0x00, 0x00, 0x00, 0x00, 0x00, 0x00, 0x00, 0x00, 0x00, 0x00,
  0xb3, 0x41, 0x1c, 0xbd, 0x06, 0x61, 0x69, 0x3d, 0x00, 0x00, 0x00, 0x00,
  0x00, 0x00, 0x00, 0x00, 0x00, 0x00, 0x00, 0x00, 0x8c, 0x46, 0xd5, 0xbd,
  0x37, 0x36, 0x2a, 0xbe, 0x67, 0x73, 0x1a, 0x43, 0x00, 0x00, 0x00, 0x00,
  0x00, 0x00, 0x00, 0x00, 0x72, 0x61, 0x40, 0xbc, 0xfa, 0xd3, 0x9b, 0xbe,
  0x39, 0x53, 0xd4, 0xc3, 0x37, 0x34, 0x31, 0x44, 0x00, 0x00, 0x00, 0x00,
  0x0a, 0xef, 0x47, 0xbb, 0x9a, 0x84, 0xab, 0xbe, 0x6b, 0x95, 0xfd, 0x42,
  0xfb, 0x59, 0xd7, 0xc3, 0xbd, 0x48, 0x1a, 0x44, 0x9e, 0x48, 0xc4, 0x3d,
  0x00, 0x00, 0x00, 0x00, 0x00, 0x00, 0x00, 0x00, 0x00, 0x00, 0x00, 0x00,
  0x00, 0x00, 0x00, 0x00, 0x55, 0x39, 0xd7, 0xbc, 0x9b, 0x8b, 0xf2, 0x3e,
  0x00, 0x00, 0x00, 0x00, 0x00, 0x00, 0x00, 0x00, 0x00, 0x00, 0x00, 0x00,
  0x5c, 0x1c, 0x8b, 0xbc, 0x51, 0x9f, 0xbb, 0xbf, 0x2e, 0x76, 0xe6, 0x42,
  0x00, 0x00, 0x00, 0x00, 0x00, 0x00, 0x00, 0x00, 0x3d, 0x33, 0xd3, 0x3b,
  0xe9, 0xbf, 0x18, 0xc0, 0xa1, 0x77, 0xbb, 0xc3, 0x55, 0xd4, 0x15, 0x44,
  0x00, 0x00, 0x00, 0x00, 0x41, 0xfd, 0xce, 0x3b, 0x17, 0xd5, 0xf8, 0xbf,
  0x9d, 0x0e, 0x5a, 0x43, 0x8c, 0xb7, 0x0c, 0xc4, 0x3f, 0x43, 0x04, 0x44,
  0x66, 0xff, 0xff, 0xff, 0x04, 0x00, 0x00, 0x00, 0x0c, 0x00, 0x00, 0x00,
  0x01, 0x00, 0x00, 0x00, 0x10, 0x00, 0x00, 0x00, 0x05, 0x00, 0x00, 0x00,
  0x7e, 0xff, 0xff, 0xff, 0x04, 0x00, 0x00, 0x00, 0x04, 0x00, 0x00, 0x00,
  0x02, 0x00, 0x00, 0x00, 0x8e, 0xff, 0xff, 0xff, 0x04, 0x00, 0x00, 0x00,
  0x04, 0x00, 0x00, 0x00, 0x01, 0x00, 0x00, 0x00, 0x9e, 0xff, 0xff, 0xff,
  0x04, 0x00, 0x00, 0x00, 0x08, 0x00, 0x00, 0x00, 0x01, 0x00, 0x00, 0x00,
  0x01, 0x00, 0x00, 0x00, 0xb2, 0xff, 0xff, 0xff, 0x04, 0x00, 0x00, 0x00,
  0x40, 0x00, 0x00, 0x00, 0x14, 0x07, 0x9d, 0x40, 0x7c, 0x6e, 0x0c, 0x41,
  0xde, 0xa1, 0x11, 0x41, 0x97, 0x47, 0x35, 0x41, 0xf1, 0x64, 0x3b, 0x41,
  0x12, 0x33, 0x14, 0x41, 0x09, 0x88, 0x2a, 0x41, 0x33, 0x0c, 0x1e, 0x41,
  0xd2, 0xe0, 0x0e, 0x41, 0x04, 0x05, 0x27, 0x41, 0xe1, 0x68, 0x37, 0x41,
  0x91, 0xe4, 0x10, 0x41, 0x9c, 0x7c, 0x24, 0x41, 0x96, 0x0b, 0x23, 0x41,
  0x37, 0x89, 0x17, 0x41, 0xa5, 0x3f, 0x3a, 0x41, 0x00, 0x00, 0x06, 0x00,
  0x08, 0x00, 0x04, 0x00, 0x06, 0x00, 0x00, 0x00, 0x04, 0x00, 0x00, 0x00,
  0x40, 0x01, 0x00, 0x00, 0xc7, 0x39, 0xc2, 0x42, 0x20, 0xdc, 0x6a, 0x3f,
  0xb8, 0x62, 0xe6, 0xc0, 0x20, 0xa2, 0xec, 0x3f, 0x00, 0x19, 0x4b, 0xbf,
  0xed, 0xcf, 0xc4, 0x42, 0x72, 0xc3, 0xc3, 0xc1, 0xfb, 0x64, 0xf6, 0x43,
  0x08, 0x6d, 0x29, 0x44, 0xa8, 0x4f, 0xf3, 0x43, 0x8d, 0xd4, 0x08, 0x43,
  0xfe, 0xa0, 0x3b, 0x42, 0x32, 0x96, 0x59, 0x43, 0x40, 0x4d, 0x62, 0x42,
  0x80, 0xbb, 0x84, 0x42, 0xb4, 0x52, 0xd3, 0x42, 0x50, 0x49, 0x79, 0xc0,
  0x4e, 0xcf, 0x43, 0x44, 0x6e, 0xd5, 0xc4, 0x44, 0x37, 0xf3, 0x1b, 0x45,
  0xfc, 0x74, 0xcb, 0x42, 0x2c, 0x59, 0x8c, 0xc1, 0x8f, 0xb0, 0x9f, 0x43,
  0x5c, 0x31, 0x58, 0x44, 0x50, 0x18, 0x45, 0x44, 0x1a, 0x5e, 0xe4, 0x42,
  0x39, 0x55, 0x8a, 0x41, 0x1b, 0xd7, 0x28, 0x44, 0x2a, 0x0b, 0x9f, 0x44,
  0x6a, 0x08, 0x9c, 0x44, 0x9d, 0x4e, 0xd1, 0x42, 0x74, 0x37, 0x10, 0xc1,
  0x96, 0x1e, 0x54, 0x44, 0xfc, 0x2a, 0xb9, 0x44, 0xe1, 0x23, 0xf3, 0x44,
  0xda, 0x4f, 0xbf, 0x42, 0x12, 0x58, 0xe6, 0xc1, 0xfc, 0x8f, 0x02, 0x44,
  0x00, 0x50, 0x5a, 0x44, 0xb8, 0xa5, 0x4c, 0x44, 0x9b, 0x23, 0xd4, 0x42,
  0x15, 0xb6, 0x2f, 0xc1, 0x71, 0x24, 0x20, 0x43, 0xf0, 0x07, 0x42, 0x43,
  0x40, 0xde, 0xb6, 0x42, 0x15, 0x88, 0xc0, 0x42, 0x2e, 0x1e, 0x1c, 0x42,
  0x10, 0xe4, 0x50, 0x44, 0xb2, 0x09, 0xb6, 0x44, 0x19, 0xce, 0xfd, 0x44,
  0x1f, 0xc0, 0xdb, 0x42, 0xf4, 0x8d, 0x54, 0xc1, 0xea, 0xe9, 0x83, 0x44,
  0x7a, 0x97, 0xba, 0x44, 0xfc, 0xc0, 0x02, 0x45, 0x62, 0x25, 0xd1, 0x42,
  0xd5, 0x6c, 0x5d, 0xc1, 0xe0, 0x19, 0x82, 0x42, 0x00, 0xcd, 0x36, 0x42,
  0xc0, 0x46, 0x00, 0x42, 0x2d, 0x92, 0xd2, 0x42, 0x1a, 0xc3, 0xf6, 0xc1,
  0xec, 0xc1, 0x2c, 0x44, 0xfc, 0x7d, 0x65, 0x44, 0x68, 0x39, 0x66, 0x44,
  0xcf, 0x43, 0xd0, 0x42, 0x52, 0xcb, 0x41, 0xc1, 0x20, 0x9b, 0x93, 0x41,
  0xf8, 0x4f, 0xaf, 0x42, 0xe0, 0xa1, 0x1d, 0x42, 0xff, 0xe7, 0xb9, 0x42,
  0xe0, 0x6a, 0x92, 0x40, 0xe9, 0x73, 0x1e, 0x44, 0x40, 0x58, 0xa9, 0x44,
  0xdd, 0xac, 0xbb, 0x44, 0x39, 0xb2, 0xcb, 0x42, 0x52, 0x31, 0x27, 0x41,
  0x9c, 0xe2, 0x8f, 0x43, 0xec, 0xf9, 0x1f, 0x44, 0x18, 0x64, 0x03, 0x44,
  0x7c, 0xe8, 0xff, 0xff, 0x80, 0xe8, 0xff, 0xff, 0x0f, 0x00, 0x00, 0x00,
  0x4d, 0x4c, 0x49, 0x52, 0x20, 0x43, 0x6f, 0x6e, 0x76, 0x65, 0x72, 0x74,
  0x65, 0x64, 0x2e, 0x00, 0x01, 0x00, 0x00, 0x00, 0x14, 0x00, 0x00, 0x00,
  0x00, 0x00, 0x0e, 0x00, 0x18, 0x00, 0x14, 0x00, 0x10, 0x00, 0x0c, 0x00,
  0x08, 0x00, 0x04, 0x00, 0x0e, 0x00, 0x00, 0x00, 0x14, 0x00, 0x00, 0x00,
  0x1c, 0x00, 0x00, 0x00, 0x10, 0x04, 0x00, 0x00, 0x14, 0x04, 0x00, 0x00,
  0x18, 0x04, 0x00, 0x00, 0x04, 0x00, 0x00, 0x00, 0x6d, 0x61, 0x69, 0x6e,
  0x00, 0x00, 0x00, 0x00, 0x14, 0x00, 0x00, 0x00, 0xc4, 0x03, 0x00, 0x00,
  0x80, 0x03, 0x00, 0x00, 0x3c, 0x03, 0x00, 0x00, 0x14, 0x03, 0x00, 0x00,
  0xd4, 0x02, 0x00, 0x00, 0xa0, 0x02, 0x00, 0x00, 0x6c, 0x02, 0x00, 0x00,
  0x38, 0x02, 0x00, 0x00, 0x04, 0x02, 0x00, 0x00, 0xdc, 0x01, 0x00, 0x00,
  0xa8, 0x01, 0x00, 0x00, 0x74, 0x01, 0x00, 0x00, 0x44, 0x01, 0x00, 0x00,
  0x10, 0x01, 0x00, 0x00, 0xec, 0x00, 0x00, 0x00, 0xb8, 0x00, 0x00, 0x00,
  0x90, 0x00, 0x00, 0x00, 0x5c, 0x00, 0x00, 0x00, 0x28, 0x00, 0x00, 0x00,
  0x04, 0x00, 0x00, 0x00, 0x3a, 0xfd, 0xff, 0xff, 0x0c, 0x00, 0x00, 0x00,
  0x10, 0x00, 0x00, 0x00, 0x0a, 0x00, 0x00, 0x00, 0x01, 0x00, 0x00, 0x00,
  0x20, 0x00, 0x00, 0x00, 0x01, 0x00, 0x00, 0x00, 0x1f, 0x00, 0x00, 0x00,
  0xfa, 0xfc, 0xff, 0xff, 0x14, 0x00, 0x00, 0x00, 0x00, 0x00, 0x00, 0x1d,
  0x10, 0x00, 0x00, 0x00, 0x14, 0x00, 0x00, 0x00, 0x09, 0x00, 0x00, 0x00,
  0x60, 0xe9, 0xff, 0xff, 0x01, 0x00, 0x00, 0x00, 0x1f, 0x00, 0x00, 0x00,
  0x02, 0x00, 0x00, 0x00, 0x1e, 0x00, 0x00, 0x00, 0x0b, 0x00, 0x00, 0x00,
  0x2a, 0xfd, 0xff, 0xff, 0x14, 0x00, 0x00, 0x00, 0x00, 0x00, 0x00, 0x1c,
  0x10, 0x00, 0x00, 0x00, 0x14, 0x00, 0x00, 0x00, 0x01, 0x00, 0x00, 0x00,
  0x90, 0xe9, 0xff, 0xff, 0x01, 0x00, 0x00, 0x00, 0x1e, 0x00, 0x00, 0x00,
  0x02, 0x00, 0x00, 0x00, 0x1d, 0x00, 0x00, 0x00, 0x0c, 0x00, 0x00, 0x00,
  0xba, 0xfd, 0xff, 0xff, 0x0c, 0x00, 0x00, 0x00, 0x10, 0x00, 0x00, 0x00,
  0x03, 0x00, 0x00, 0x00, 0x01, 0x00, 0x00, 0x00, 0x1d, 0x00, 0x00, 0x00,
  0x02, 0x00, 0x00, 0x00, 0x1c, 0x00, 0x00, 0x00, 0x03, 0x00, 0x00, 0x00,
  0x7e, 0xfd, 0xff, 0xff, 0x14, 0x00, 0x00, 0x00, 0x00, 0x00, 0x00, 0x0b,
  0x10, 0x00, 0x00, 0x00, 0x14, 0x00, 0x00, 0x00, 0x05, 0x00, 0x00, 0x00,
  0xe4, 0xe9, 0xff, 0xff, 0x01, 0x00, 0x00, 0x00, 0x1c, 0x00, 0x00, 0x00,
  0x02, 0x00, 0x00, 0x00, 0x1b, 0x00, 0x00, 0x00, 0x15, 0x00, 0x00, 0x00,
  0x0e, 0xfe, 0xff, 0xff, 0x0c, 0x00, 0x00, 0x00, 0x10, 0x00, 0x00, 0x00,
  0x08, 0x00, 0x00, 0x00, 0x01, 0x00, 0x00, 0x00, 0x1b, 0x00, 0x00, 0x00,
  0x01, 0x00, 0x00, 0x00, 0x1a, 0x00, 0x00, 0x00, 0xce, 0xfd, 0xff, 0xff,
  0x14, 0x00, 0x00, 0x00, 0x00, 0x00, 0x00, 0x1b, 0x10, 0x00, 0x00, 0x00,
  0x14, 0x00, 0x00, 0x00, 0x04, 0x00, 0x00, 0x00, 0x34, 0xea, 0xff, 0xff,
  0x01, 0x00, 0x00, 0x00, 0x1a, 0x00, 0x00, 0x00, 0x02, 0x00, 0x00, 0x00,
  0x19, 0x00, 0x00, 0x00, 0x04, 0x00, 0x00, 0x00, 0xfe, 0xfd, 0xff, 0xff,
  0x14, 0x00, 0x00, 0x00, 0x00, 0x00, 0x00, 0x21, 0x10, 0x00, 0x00, 0x00,
  0x14, 0x00, 0x00, 0x00, 0x07, 0x00, 0x00, 0x00, 0x64, 0xea, 0xff, 0xff,
  0x01, 0x00, 0x00, 0x00, 0x19, 0x00, 0x00, 0x00, 0x01, 0x00, 0x00, 0x00,
  0x18, 0x00, 0x00, 0x00, 0x2a, 0xfe, 0xff, 0xff, 0x14, 0x00, 0x00, 0x00,
  0x00, 0x00, 0x00, 0x1c, 0x10, 0x00, 0x00, 0x00, 0x14, 0x00, 0x00, 0x00,
  0x01, 0x00, 0x00, 0x00, 0x90, 0xea, 0xff, 0xff, 0x01, 0x00, 0x00, 0x00,
  0x18, 0x00, 0x00, 0x00, 0x02, 0x00, 0x00, 0x00, 0x14, 0x00, 0x00, 0x00,
  0x17, 0x00, 0x00, 0x00, 0x5a, 0xfe, 0xff, 0xff, 0x14, 0x00, 0x00, 0x00,
  0x00, 0x00, 0x00, 0x15, 0x10, 0x00, 0x00, 0x00, 0x14, 0x00, 0x00, 0x00,
  0x02, 0x00, 0x00, 0x00, 0xc0, 0xea, 0xff, 0xff, 0x01, 0x00, 0x00, 0x00,
  0x17, 0x00, 0x00, 0x00, 0x02, 0x00, 0x00, 0x00, 0x16, 0x00, 0x00, 0x00,
  0x08, 0x00, 0x00, 0x00, 0xea, 0xfe, 0xff, 0xff, 0x0c, 0x00, 0x00, 0x00,
  0x10, 0x00, 0x00, 0x00, 0x03, 0x00, 0x00, 0x00, 0x01, 0x00, 0x00, 0x00,
  0x16, 0x00, 0x00, 0x00, 0x02, 0x00, 0x00, 0x00, 0x15, 0x00, 0x00, 0x00,
  0x03, 0x00, 0x00, 0x00, 0xae, 0xfe, 0xff, 0xff, 0x14, 0x00, 0x00, 0x00,
  0x00, 0x00, 0x00, 0x1b, 0x10, 0x00, 0x00, 0x00, 0x14, 0x00, 0x00, 0x00,
  0x06, 0x00, 0x00, 0x00, 0x14, 0xeb, 0xff, 0xff, 0x01, 0x00, 0x00, 0x00,
  0x15, 0x00, 0x00, 0x00, 0x02, 0x00, 0x00, 0x00, 0x14, 0x00, 0x00, 0x00,
  0x04, 0x00, 0x00, 0x00, 0xde, 0xfe, 0xff, 0xff, 0x14, 0x00, 0x00, 0x00,
  0x00, 0x00, 0x00, 0x0b, 0x10, 0x00, 0x00, 0x00, 0x14, 0x00, 0x00, 0x00,
  0x05, 0x00, 0x00, 0x00, 0x44, 0xeb, 0xff, 0xff, 0x01, 0x00, 0x00, 0x00,
  0x14, 0x00, 0x00, 0x00, 0x02, 0x00, 0x00, 0x00, 0x13, 0x00, 0x00, 0x00,
  0x02, 0x00, 0x00, 0x00, 0x0e, 0xff, 0xff, 0xff, 0x14, 0x00, 0x00, 0x00,
  0x00, 0x00, 0x00, 0x15, 0x10, 0x00, 0x00, 0x00, 0x14, 0x00, 0x00, 0x00,
  0x02, 0x00, 0x00, 0x00, 0x74, 0xeb, 0xff, 0xff, 0x01, 0x00, 0x00, 0x00,
  0x13, 0x00, 0x00, 0x00, 0x02, 0x00, 0x00, 0x00, 0x12, 0x00, 0x00, 0x00,
  0x09, 0x00, 0x00, 0x00, 0x3e, 0xff, 0xff, 0xff, 0x14, 0x00, 0x00, 0x00,
  0x00, 0x00, 0x00, 0x0b, 0x10, 0x00, 0x00, 0x00, 0x14, 0x00, 0x00, 0x00,
  0x05, 0x00, 0x00, 0x00, 0xa4, 0xeb, 0xff, 0xff, 0x01, 0x00, 0x00, 0x00,
  0x12, 0x00, 0x00, 0x00, 0x02, 0x00, 0x00, 0x00, 0x11, 0x00, 0x00, 0x00,
  0x0a, 0x00, 0x00, 0x00, 0x6e, 0xff, 0xff, 0xff, 0x14, 0x00, 0x00, 0x00,
  0x00, 0x00, 0x00, 0x1b, 0x10, 0x00, 0x00, 0x00, 0x14, 0x00, 0x00, 0x00,
  0x04, 0x00, 0x00, 0x00, 0xd4, 0xeb, 0xff, 0xff, 0x01, 0x00, 0x00, 0x00,
  0x11, 0x00, 0x00, 0x00, 0x02, 0x00, 0x00, 0x00, 0x10, 0x00, 0x00, 0x00,
  0x05, 0x00, 0x00, 0x00, 0x00, 0x00, 0x0a, 0x00, 0x10, 0x00, 0x0c, 0x00,
  0x08, 0x00, 0x04, 0x00, 0x0a, 0x00, 0x00, 0x00, 0x0c, 0x00, 0x00, 0x00,
  0x10, 0x00, 0x00, 0x00, 0x03, 0x00, 0x00, 0x00, 0x01, 0x00, 0x00, 0x00,
  0x10, 0x00, 0x00, 0x00, 0x02, 0x00, 0x00, 0x00, 0x0f, 0x00, 0x00, 0x00,
  0x06, 0x00, 0x00, 0x00, 0xce, 0xff, 0xff, 0xff, 0x14, 0x00, 0x00, 0x00,
  0x00, 0x00, 0x00, 0x15, 0x10, 0x00, 0x00, 0x00, 0x14, 0x00, 0x00, 0x00,
  0x02, 0x00, 0x00, 0x00, 0x34, 0xec, 0xff, 0xff, 0x01, 0x00, 0x00, 0x00,
  0x0f, 0x00, 0x00, 0x00, 0x02, 0x00, 0x00, 0x00, 0x0e, 0x00, 0x00, 0x00,
  0x0e, 0x00, 0x00, 0x00, 0x00, 0x00, 0x0e, 0x00, 0x18, 0x00, 0x14, 0x00,
  0x10, 0x00, 0x0c, 0x00, 0x0b, 0x00, 0x04, 0x00, 0x0e, 0x00, 0x00, 0x00,
  0x14, 0x00, 0x00, 0x00, 0x00, 0x00, 0x00, 0x1c, 0x10, 0x00, 0x00, 0x00,
  0x14, 0x00, 0x00, 0x00, 0x01, 0x00, 0x00, 0x00, 0x74, 0xec, 0xff, 0xff,
  0x01, 0x00, 0x00, 0x00, 0x0e, 0x00, 0x00, 0x00, 0x02, 0x00, 0x00, 0x00,
  0x0d, 0x00, 0x00, 0x00, 0x01, 0x00, 0x00, 0x00, 0x00, 0x00, 0x0e, 0x00,
  0x14, 0x00, 0x00, 0x00, 0x10, 0x00, 0x0c, 0x00, 0x0b, 0x00, 0x04, 0x00,
  0x0e, 0x00, 0x00, 0x00, 0x10, 0x00, 0x00, 0x00, 0x00, 0x00, 0x00, 0x08,
  0x0c, 0x00, 0x00, 0x00, 0x10, 0x00, 0x00, 0x00, 0xb0, 0xec, 0xff, 0xff,
  0x01, 0x00, 0x00, 0x00, 0x0d, 0x00, 0x00, 0x00, 0x03, 0x00, 0x00, 0x00,
  0x00, 0x00, 0x00, 0x00, 0x07, 0x00, 0x00, 0x00, 0xff, 0xff, 0xff, 0xff,
  0x01, 0x00, 0x00, 0x00, 0x20, 0x00, 0x00, 0x00, 0x01, 0x00, 0x00, 0x00,
  0x00, 0x00, 0x00, 0x00, 0x21, 0x00, 0x00, 0x00, 0x80, 0x12, 0x00, 0x00,
  0x08, 0x11, 0x00, 0x00, 0x44, 0x10, 0x00, 0x00, 0xe8, 0x0f, 0x00, 0x00,
  0x64, 0x0f, 0x00, 0x00, 0xf8, 0x0e, 0x00, 0x00, 0x20, 0x0e, 0x00, 0x00,
  0x4c, 0x0d, 0x00, 0x00, 0xe0, 0x0c, 0x00, 0x00, 0xa4, 0x0c, 0x00, 0x00,
  0x68, 0x0c, 0x00, 0x00, 0x2c, 0x0c, 0x00, 0x00, 0xf0, 0x0b, 0x00, 0x00,
  0x18, 0x0b, 0x00, 0x00, 0xb0, 0x09, 0x00, 0x00, 0x20, 0x08, 0x00, 0x00,
  0x8c, 0x06, 0x00, 0x00, 0x1c, 0x06, 0x00, 0x00, 0xc0, 0x05, 0x00, 0x00,
  0x64, 0x05, 0x00, 0x00, 0x9c, 0x04, 0x00, 0x00, 0x30, 0x04, 0x00, 0x00,
  0xd4, 0x03, 0x00, 0x00, 0x78, 0x03, 0x00, 0x00, 0x1c, 0x03, 0x00, 0x00,
  0xc0, 0x02, 0x00, 0x00, 0x58, 0x02, 0x00, 0x00, 0x00, 0x02, 0x00, 0x00,
  0xa8, 0x01, 0x00, 0x00, 0x18, 0x01, 0x00, 0x00, 0xbc, 0x00, 0x00, 0x00,
  0x60, 0x00, 0x00, 0x00, 0x04, 0x00, 0x00, 0x00, 0x1a, 0xee, 0xff, 0xff,
  0x00, 0x00, 0x00, 0x01, 0x10, 0x00, 0x00, 0x00, 0x10, 0x00, 0x00, 0x00,
  0x21, 0x00, 0x00, 0x00, 0x38, 0x00, 0x00, 0x00, 0x7c, 0xed, 0xff, 0xff,
  0x29, 0x00, 0x00, 0x00, 0x78, 0x6c, 0x61, 0x5f, 0x63, 0x6f, 0x6d, 0x70,
  0x75, 0x74, 0x61, 0x74, 0x69, 0x6f, 0x6e, 0x28, 0x6a, 0x61, 0x78, 0x5f,
  0x73, 0x63, 0x6f, 0x72, 0x65, 0x29, 0x2f, 0x6a, 0x69, 0x74, 0x28, 0x6d,
  0x61, 0x69, 0x6e, 0x29, 0x2f, 0x61, 0x62, 0x73, 0x3b, 0x00, 0x00, 0x00,
  0x02, 0x00, 0x00, 0x00, 0x01, 0x00, 0x00, 0x00, 0x01, 0x00, 0x00, 0x00,
  0x72, 0xee, 0xff, 0xff, 0x00, 0x00, 0x00, 0x01, 0x10, 0x00, 0x00, 0x00,
  0x10, 0x00, 0x00, 0x00, 0x20, 0x00, 0x00, 0x00, 0x38, 0x00, 0x00, 0x00,
  0xd4, 0xed, 0xff, 0xff, 0x29, 0x00, 0x00, 0x00, 0x78, 0x6c, 0x61, 0x5f,
  0x63, 0x6f, 0x6d, 0x70, 0x75, 0x74, 0x61, 0x74, 0x69, 0x6f, 0x6e, 0x28,
  0x6a, 0x61, 0x78, 0x5f, 0x73, 0x63, 0x6f, 0x72, 0x65, 0x29, 0x2f, 0x6a,
  0x69, 0x74, 0x28, 0x6d, 0x61, 0x69, 0x6e, 0x29, 0x2f, 0x64, 0x69, 0x76,
  0x3b, 0x00, 0x00, 0x00, 0x02, 0x00, 0x00, 0x00, 0x01, 0x00, 0x00, 0x00,
  0x01, 0x00, 0x00, 0x00, 0xca, 0xee, 0xff, 0xff, 0x00, 0x00, 0x00, 0x01,
  0x10, 0x00, 0x00, 0x00, 0x10, 0x00, 0x00, 0x00, 0x1f, 0x00, 0x00, 0x00,
  0x38, 0x00, 0x00, 0x00, 0x2c, 0xee, 0xff, 0xff, 0x2a, 0x00, 0x00, 0x00,
  0x78, 0x6c, 0x61, 0x5f, 0x63, 0x6f, 0x6d, 0x70, 0x75, 0x74, 0x61, 0x74,
  0x69, 0x6f, 0x6e, 0x28, 0x6a, 0x61, 0x78, 0x5f, 0x73, 0x63, 0x6f, 0x72,
  0x65, 0x29, 0x2f, 0x6a, 0x69, 0x74, 0x28, 0x6d, 0x61, 0x69, 0x6e, 0x29,
  0x2f, 0x73, 0x75, 0x62, 0x3b, 0x35, 0x00, 0x00, 0x02, 0x00, 0x00, 0x00,
  0x01, 0x00, 0x00, 0x00, 0x01, 0x00, 0x00, 0x00, 0x22, 0xef, 0xff, 0xff,
  0x00, 0x00, 0x00, 0x01, 0x10, 0x00, 0x00, 0x00, 0x10, 0x00, 0x00, 0x00,
  0x1e, 0x00, 0x00, 0x00, 0x6c, 0x00, 0x00, 0x00, 0x84, 0xee, 0xff, 0xff,
  0x5e, 0x00, 0x00, 0x00, 0x78, 0x6c, 0x61, 0x5f, 0x63, 0x6f, 0x6d, 0x70,
  0x75, 0x74, 0x61, 0x74, 0x69, 0x6f, 0x6e, 0x28, 0x6a, 0x61, 0x78, 0x5f,
  0x73, 0x63, 0x6f, 0x72, 0x65, 0x29, 0x2f, 0x6a, 0x69, 0x74, 0x28, 0x6d,
  0x61, 0x69, 0x6e, 0x29, 0x2f, 0x62, 0x72, 0x6f, 0x61, 0x64, 0x63, 0x61,
  0x73, 0x74, 0x5f, 0x69, 0x6e, 0x5f, 0x64, 0x69, 0x6d, 0x5b, 0x73, 0x68,
  0x61, 0x70, 0x65, 0x3d, 0x28, 0x31, 0x2c, 0x20, 0x31, 0x29, 0x20, 0x62,
  0x72, 0x6f, 0x61, 0x64, 0x63, 0x61, 0x73, 0x74, 0x5f, 0x64, 0x69, 0x6d,
  0x65, 0x6e, 0x73, 0x69, 0x6f, 0x6e, 0x73, 0x3d, 0x28, 0x30, 0x2c, 0x29,
  0x5d, 0x3b, 0x00, 0x00, 0x02, 0x00, 0x00, 0x00, 0x01, 0x00, 0x00, 0x00,
  0x01, 0x00, 0x00, 0x00, 0xae, 0xef, 0xff, 0xff, 0x00, 0x00, 0x00, 0x01,
  0x10, 0x00, 0x00, 0x00, 0x10, 0x00, 0x00, 0x00, 0x1d, 0x00, 0x00, 0x00,
  0x38, 0x00, 0x00, 0x00, 0x10, 0xef, 0xff, 0xff, 0x2a, 0x00, 0x00, 0x00,
  0x78, 0x6c, 0x61, 0x5f, 0x63, 0x6f, 0x6d, 0x70, 0x75, 0x74, 0x61, 0x74,
  0x69, 0x6f, 0x6e, 0x28, 0x6a, 0x61, 0x78, 0x5f, 0x73, 0x63, 0x6f, 0x72,
  0x65, 0x29, 0x2f, 0x6a, 0x69, 0x74, 0x28, 0x6d, 0x61, 0x69, 0x6e, 0x29,
  0x2f, 0x61, 0x64, 0x64, 0x3b, 0x31, 0x00, 0x00, 0x01, 0x00, 0x00, 0x00,
  0x01, 0x00, 0x00, 0x00, 0x02, 0xf0, 0xff, 0xff, 0x00, 0x00, 0x00, 0x01,
  0x10, 0x00, 0x00, 0x00, 0x10, 0x00, 0x00, 0x00, 0x1c, 0x00, 0x00, 0x00,
  0x38, 0x00, 0x00, 0x00, 0x64, 0xef, 0xff, 0xff, 0x29, 0x00, 0x00, 0x00,
  0x78, 0x6c, 0x61, 0x5f, 0x63, 0x6f, 0x6d, 0x70, 0x75, 0x74, 0x61, 0x74,
  0x69, 0x6f, 0x6e, 0x28, 0x6a, 0x61, 0x78, 0x5f, 0x73, 0x63, 0x6f, 0x72,
  0x65, 0x29, 0x2f, 0x6a, 0x69, 0x74, 0x28, 0x6d, 0x61, 0x69, 0x6e, 0x29,
  0x2f, 0x6c, 0x6f, 0x67, 0x3b, 0x00, 0x00, 0x00, 0x01, 0x00, 0x00, 0x00,
  0x01, 0x00, 0x00, 0x00, 0x56, 0xf0, 0xff, 0xff, 0x00, 0x00, 0x00, 0x01,
  0x10, 0x00, 0x00, 0x00, 0x10, 0x00, 0x00, 0x00, 0x1b, 0x00, 0x00, 0x00,
  0x48, 0x00, 0x00, 0x00, 0xb8, 0xef, 0xff, 0xff, 0x3b, 0x00, 0x00, 0x00,
  0x78, 0x6c, 0x61, 0x5f, 0x63, 0x6f, 0x6d, 0x70, 0x75, 0x74, 0x61, 0x74,
  0x69, 0x6f, 0x6e, 0x28, 0x6a, 0x61, 0x78, 0x5f, 0x73, 0x63, 0x6f, 0x72,
  0x65, 0x29, 0x2f, 0x6a, 0x69, 0x74, 0x28, 0x6d, 0x61, 0x69, 0x6e, 0x29,
  0x2f, 0x72, 0x65, 0x64, 0x75, 0x63, 0x65, 0x5f, 0x73, 0x75, 0x6d, 0x5b,
  0x61, 0x78, 0x65, 0x73, 0x3d, 0x28, 0x31, 0x2c, 0x29, 0x5d, 0x3b, 0x00,
  0x01, 0x00, 0x00, 0x00, 0x01, 0x00, 0x00, 0x00, 0xba, 0xf0, 0xff, 0xff,
  0x00, 0x00, 0x00, 0x01, 0x10, 0x00, 0x00, 0x00, 0x10, 0x00, 0x00, 0x00,
  0x1a, 0x00, 0x00, 0x00, 0x38, 0x00, 0x00, 0x00, 0x1c, 0xf0, 0xff, 0xff,
  0x29, 0x00, 0x00, 0x00, 0x78, 0x6c, 0x61, 0x5f, 0x63, 0x6f, 0x6d, 0x70,
  0x75, 0x74, 0x61, 0x74, 0x69, 0x6f, 0x6e, 0x28, 0x6a, 0x61, 0x78, 0x5f,
  0x73, 0x63, 0x6f, 0x72, 0x65, 0x29, 0x2f, 0x6a, 0x69, 0x74, 0x28, 0x6d,
  0x61, 0x69, 0x6e, 0x29, 0x2f, 0x65, 0x78, 0x70, 0x3b, 0x00, 0x00, 0x00,
  0x02, 0x00, 0x00, 0x00, 0x01, 0x00, 0x00, 0x00, 0x10, 0x00, 0x00, 0x00,
  0x12, 0xf1, 0xff, 0xff, 0x00, 0x00, 0x00, 0x01, 0x10, 0x00, 0x00, 0x00,
  0x10, 0x00, 0x00, 0x00, 0x19, 0x00, 0x00, 0x00, 0x38, 0x00, 0x00, 0x00,
  0x74, 0xf0, 0xff, 0xff, 0x2a, 0x00, 0x00, 0x00, 0x78, 0x6c, 0x61, 0x5f,
  0x63, 0x6f, 0x6d, 0x70, 0x75, 0x74, 0x61, 0x74, 0x69, 0x6f, 0x6e, 0x28,
  0x6a, 0x61, 0x78, 0x5f, 0x73, 0x63, 0x6f, 0x72, 0x65, 0x29, 0x2f, 0x6a,
  0x69, 0x74, 0x28, 0x6d, 0x61, 0x69, 0x6e, 0x29, 0x2f, 0x73, 0x75, 0x62,
  0x3b, 0x34, 0x00, 0x00, 0x02, 0x00, 0x00, 0x00, 0x01, 0x00, 0x00, 0x00,
  0x10, 0x00, 0x00, 0x00, 0x6a, 0xf1, 0xff, 0xff, 0x00, 0x00, 0x00, 0x01,
  0x10, 0x00, 0x00, 0x00, 0x10, 0x00, 0x00, 0x00, 0x18, 0x00, 0x00, 0x00,
  0x38, 0x00, 0x00, 0x00, 0xcc, 0xf0, 0xff, 0xff, 0x2a, 0x00, 0x00, 0x00,
  0x78, 0x6c, 0x61, 0x5f, 0x63, 0x6f, 0x6d, 0x70, 0x75, 0x74, 0x61, 0x74,
  0x69, 0x6f, 0x6e, 0x28, 0x6a, 0x61, 0x78, 0x5f, 0x73, 0x63, 0x6f, 0x72,
  0x65, 0x29, 0x2f, 0x6a, 0x69, 0x74, 0x28, 0x6d, 0x61, 0x69, 0x6e, 0x29,
  0x2f, 0x73, 0x75, 0x62, 0x3b, 0x33, 0x00, 0x00, 0x02, 0x00, 0x00, 0x00,
  0x01, 0x00, 0x00, 0x00, 0x10, 0x00, 0x00, 0x00, 0xc2, 0xf1, 0xff, 0xff,
  0x00, 0x00, 0x00, 0x01, 0x10, 0x00, 0x00, 0x00, 0x10, 0x00, 0x00, 0x00,
  0x17, 0x00, 0x00, 0x00, 0x38, 0x00, 0x00, 0x00, 0x24, 0xf1, 0xff, 0xff,
  0x2a, 0x00, 0x00, 0x00, 0x78, 0x6c, 0x61, 0x5f, 0x63, 0x6f, 0x6d, 0x70,
  0x75, 0x74, 0x61, 0x74, 0x69, 0x6f, 0x6e, 0x28, 0x6a, 0x61, 0x78, 0x5f,
  0x73, 0x63, 0x6f, 0x72, 0x65, 0x29, 0x2f, 0x6a, 0x69, 0x74, 0x28, 0x6d,
  0x61, 0x69, 0x6e, 0x29, 0x2f, 0x73, 0x75, 0x62, 0x3b, 0x32, 0x00, 0x00,
  0x02, 0x00, 0x00, 0x00, 0x01, 0x00, 0x00, 0x00, 0x01, 0x00, 0x00, 0x00,
  0x1a, 0xf2, 0xff, 0xff, 0x00, 0x00, 0x00, 0x01, 0x10, 0x00, 0x00, 0x00,
  0x10, 0x00, 0x00, 0x00, 0x16, 0x00, 0x00, 0x00, 0x4c, 0x00, 0x00, 0x00,
  0x7c, 0xf1, 0xff, 0xff, 0x3c, 0x00, 0x00, 0x00, 0x78, 0x6c, 0x61, 0x5f,
  0x63, 0x6f, 0x6d, 0x70, 0x75, 0x74, 0x61, 0x74, 0x69, 0x6f, 0x6e, 0x28,
  0x6a, 0x61, 0x78, 0x5f, 0x73, 0x63, 0x6f, 0x72, 0x65, 0x29, 0x2f, 0x6a,
  0x69, 0x74, 0x28, 0x6d, 0x61, 0x69, 0x6e, 0x29, 0x2f, 0x72, 0x65, 0x64,
  0x75, 0x63, 0x65, 0x5f, 0x6d, 0x61, 0x78, 0x5b, 0x61, 0x78, 0x65, 0x73,
  0x3d, 0x28, 0x31, 0x2c, 0x29, 0x5d, 0x3b, 0x31, 0x00, 0x00, 0x00, 0x00,
  0x01, 0x00, 0x00, 0x00, 0x01, 0x00, 0x00, 0x00, 0x82, 0xf2, 0xff, 0xff,
  0x00, 0x00, 0x00, 0x01, 0x10, 0x00, 0x00, 0x00, 0x10, 0x00, 0x00, 0x00,
  0x15, 0x00, 0x00, 0x00, 0xa4, 0x00, 0x00, 0x00, 0xe4, 0xf1, 0xff, 0xff,
  0x94, 0x00, 0x00, 0x00, 0x78, 0x6c, 0x61, 0x5f, 0x63, 0x6f, 0x6d, 0x70,
  0x75, 0x74, 0x61, 0x74, 0x69, 0x6f, 0x6e, 0x28, 0x6a, 0x61, 0x78, 0x5f,
  0x73, 0x63, 0x6f, 0x72, 0x65, 0x29, 0x2f, 0x6a, 0x69, 0x74, 0x28, 0x6d,
  0x61, 0x69, 0x6e, 0x29, 0x2f, 0x61, 0x64, 0x64, 0x3b, 0x3b, 0x78, 0x6c,
  0x61, 0x5f, 0x63, 0x6f, 0x6d, 0x70, 0x75, 0x74, 0x61, 0x74, 0x69, 0x6f,
  0x6e, 0x28, 0x6a, 0x61, 0x78, 0x5f, 0x73, 0x63, 0x6f, 0x72, 0x65, 0x29,
  0x2f, 0x6a, 0x69, 0x74, 0x28, 0x6d, 0x61, 0x69, 0x6e, 0x29, 0x2f, 0x62,
  0x72, 0x6f, 0x61, 0x64, 0x63, 0x61, 0x73, 0x74, 0x5f, 0x69, 0x6e, 0x5f,
  0x64, 0x69, 0x6d, 0x5b, 0x73, 0x68, 0x61, 0x70, 0x65, 0x3d, 0x28, 0x31,
  0x2c, 0x20, 0x31, 0x36, 0x29, 0x20, 0x62, 0x72, 0x6f, 0x61, 0x64, 0x63,
  0x61, 0x73, 0x74, 0x5f, 0x64, 0x69, 0x6d, 0x65, 0x6e, 0x73, 0x69, 0x6f,
  0x6e, 0x73, 0x3d, 0x28, 0x31, 0x2c, 0x29, 0x5d, 0x3b, 0x63, 0x6f, 0x6e,
  0x73, 0x74, 0x61, 0x6e, 0x74, 0x2e, 0x34, 0x31, 0x00, 0x00, 0x00, 0x00,
  0x02, 0x00, 0x00, 0x00, 0x01, 0x00, 0x00, 0x00, 0x10, 0x00, 0x00, 0x00,
  0x46, 0xf3, 0xff, 0xff, 0x00, 0x00, 0x00, 0x01, 0x10, 0x00, 0x00, 0x00,
  0x10, 0x00, 0x00, 0x00, 0x14, 0x00, 0x00, 0x00, 0x38, 0x00, 0x00, 0x00,
  0xa8, 0xf2, 0xff, 0xff, 0x29, 0x00, 0x00, 0x00, 0x78, 0x6c, 0x61, 0x5f,
  0x63, 0x6f, 0x6d, 0x70, 0x75, 0x74, 0x61, 0x74, 0x69, 0x6f, 0x6e, 0x28,
  0x6a, 0x61, 0x78, 0x5f, 0x73, 0x63, 0x6f, 0x72, 0x65, 0x29, 0x2f, 0x6a,
  0x69, 0x74, 0x28, 0x6d, 0x61, 0x69, 0x6e, 0x29, 0x2f, 0x6d, 0x75, 0x6c,
  0x3b, 0x00, 0x00, 0x00, 0x02, 0x00, 0x00, 0x00, 0x01, 0x00, 0x00, 0x00,
  0x10, 0x00, 0x00, 0x00, 0x9e, 0xf3, 0xff, 0xff, 0x00, 0x00, 0x00, 0x01,
  0x10, 0x00, 0x00, 0x00, 0x10, 0x00, 0x00, 0x00, 0x13, 0x00, 0x00, 0x00,
  0x38, 0x00, 0x00, 0x00, 0x00, 0xf3, 0xff, 0xff, 0x29, 0x00, 0x00, 0x00,
  0x78, 0x6c, 0x61, 0x5f, 0x63, 0x6f, 0x6d, 0x70, 0x75, 0x74, 0x61, 0x74,
  0x69, 0x6f, 0x6e, 0x28, 0x6a, 0x61, 0x78, 0x5f, 0x73, 0x63, 0x6f, 0x72,
  0x65, 0x29, 0x2f, 0x6a, 0x69, 0x74, 0x28, 0x6d, 0x61, 0x69, 0x6e, 0x29,
  0x2f, 0x61, 0x64, 0x64, 0x3b, 0x00, 0x00, 0x00, 0x02, 0x00, 0x00, 0x00,
  0x01, 0x00, 0x00, 0x00, 0x10, 0x00, 0x00, 0x00, 0xf6, 0xf3, 0xff, 0xff,
  0x00, 0x00, 0x00, 0x01, 0x10, 0x00, 0x00, 0x00, 0x10, 0x00, 0x00, 0x00,
  0x12, 0x00, 0x00, 0x00, 0x4c, 0x00, 0x00, 0x00, 0x58, 0xf3, 0xff, 0xff,
  0x3c, 0x00, 0x00, 0x00, 0x78, 0x6c, 0x61, 0x5f, 0x63, 0x6f, 0x6d, 0x70,
  0x75, 0x74, 0x61, 0x74, 0x69, 0x6f, 0x6e, 0x28, 0x6a, 0x61, 0x78, 0x5f,
  0x73, 0x63, 0x6f, 0x72, 0x65, 0x29, 0x2f, 0x6a, 0x69, 0x74, 0x28, 0x6d,
  0x61, 0x69, 0x6e, 0x29, 0x2f, 0x72, 0x65, 0x64, 0x75, 0x63, 0x65, 0x5f,
  0x73, 0x75, 0x6d, 0x5b, 0x61, 0x78, 0x65, 0x73, 0x3d, 0x28, 0x32, 0x2c,
  0x29, 0x5d, 0x3b, 0x31, 0x00, 0x00, 0x00, 0x00, 0x02, 0x00, 0x00, 0x00,
  0x01, 0x00, 0x00, 0x00, 0x10, 0x00, 0x00, 0x00, 0x62, 0xf4, 0xff, 0xff,
  0x00, 0x00, 0x00, 0x01, 0x10, 0x00, 0x00, 0x00, 0x10, 0x00, 0x00, 0x00,
  0x11, 0x00, 0x00, 0x00, 0x6c, 0x01, 0x00, 0x00, 0xc4, 0xf3, 0xff, 0xff,
  0x5e, 0x01, 0x00, 0x00, 0x78, 0x6c, 0x61, 0x5f, 0x63, 0x6f, 0x6d, 0x70,
  0x75, 0x74, 0x61, 0x74, 0x69, 0x6f, 0x6e, 0x28, 0x6a, 0x61, 0x78, 0x5f,
  0x73, 0x63, 0x6f, 0x72, 0x65, 0x29, 0x2f, 0x6a, 0x69, 0x74, 0x28, 0x6d,
  0x61, 0x69, 0x6e, 0x29, 0x2f, 0x6d, 0x75, 0x6c, 0x3b, 0x3b, 0x78, 0x6c,
  0x61, 0x5f, 0x63, 0x6f, 0x6d, 0x70, 0x75, 0x74, 0x61, 0x74, 0x69, 0x6f,
  0x6e, 0x28, 0x6a, 0x61, 0x78, 0x5f, 0x73, 0x63, 0x6f, 0x72, 0x65, 0x29,
  0x2f, 0x6a, 0x69, 0x74, 0x28, 0x6d, 0x61, 0x69, 0x6e, 0x29, 0x2f, 0x76,
  0x6d, 0x61, 0x70, 0x28, 0x6a, 0x2c, 0x69, 0x6a, 0x6b, 0x2d, 0x3e, 0x69,
  0x6b, 0x29, 0x2f, 0x6a, 0x69, 0x74, 0x28, 0x5f, 0x65, 0x69, 0x6e, 0x73,
  0x75, 0x6d, 0x29, 0x2f, 0x64, 0x6f, 0x74, 0x5f, 0x67, 0x65, 0x6e, 0x65,
  0x72, 0x61, 0x6c, 0x5b, 0x64, 0x69, 0x6d, 0x65, 0x6e, 0x73, 0x69, 0x6f,
  0x6e, 0x5f, 0x6e, 0x75, 0x6d, 0x62, 0x65, 0x72, 0x73, 0x3d, 0x28, 0x28,
  0x28, 0x31, 0x2c, 0x29, 0x2c, 0x20, 0x28, 0x31, 0x2c, 0x29, 0x29, 0x2c,
  0x20, 0x28, 0x28, 0x29, 0x2c, 0x20, 0x28, 0x29, 0x29, 0x29, 0x20, 0x70,
  0x72, 0x65, 0x63, 0x69, 0x73, 0x69, 0x6f, 0x6e, 0x3d, 0x4e, 0x6f, 0x6e,
  0x65, 0x20, 0x70, 0x72, 0x65, 0x66, 0x65, 0x72, 0x72, 0x65, 0x64, 0x5f,
  0x65, 0x6c, 0x65, 0x6d, 0x65, 0x6e, 0x74, 0x5f, 0x74, 0x79, 0x70, 0x65,
  0x3d, 0x4e, 0x6f, 0x6e, 0x65, 0x5d, 0x3b, 0x3b, 0x78, 0x6c, 0x61, 0x5f,
  0x63, 0x6f, 0x6d, 0x70, 0x75, 0x74, 0x61, 0x74, 0x69, 0x6f, 0x6e, 0x28,
  0x6a, 0x61, 0x78, 0x5f, 0x73, 0x63, 0x6f, 0x72, 0x65, 0x29, 0x2f, 0x6a,
  0x69, 0x74, 0x28, 0x6d, 0x61, 0x69, 0x6e, 0x29, 0x2f, 0x73, 0x75, 0x62,
  0x3b, 0x3b, 0x78, 0x6c, 0x61, 0x5f, 0x63, 0x6f, 0x6d, 0x70, 0x75, 0x74,
  0x61, 0x74, 0x69, 0x6f, 0x6e, 0x28, 0x6a, 0x61, 0x78, 0x5f, 0x73, 0x63,
  0x6f, 0x72, 0x65, 0x29, 0x2f, 0x6a, 0x69, 0x74, 0x28, 0x6d, 0x61, 0x69,
  0x6e, 0x29, 0x2f, 0x62, 0x72, 0x6f, 0x61, 0x64, 0x63, 0x61, 0x73, 0x74,
  0x5f, 0x69, 0x6e, 0x5f, 0x64, 0x69, 0x6d, 0x5b, 0x73, 0x68, 0x61, 0x70,
  0x65, 0x3d, 0x28, 0x31, 0x2c, 0x20, 0x31, 0x36, 0x2c, 0x20, 0x35, 0x29,
  0x20, 0x62, 0x72, 0x6f, 0x61, 0x64, 0x63, 0x61, 0x73, 0x74, 0x5f, 0x64,
  0x69, 0x6d, 0x65, 0x6e, 0x73, 0x69, 0x6f, 0x6e, 0x73, 0x3d, 0x28, 0x31,
  0x2c, 0x20, 0x32, 0x29, 0x5d, 0x31, 0x00, 0x00, 0x03, 0x00, 0x00, 0x00,
  0x01, 0x00, 0x00, 0x00, 0x10, 0x00, 0x00, 0x00, 0x05, 0x00, 0x00, 0x00,
  0xf2, 0xf5, 0xff, 0xff, 0x00, 0x00, 0x00, 0x01, 0x10, 0x00, 0x00, 0x00,
  0x10, 0x00, 0x00, 0x00, 0x10, 0x00, 0x00, 0x00, 0x6c, 0x01, 0x00, 0x00,
  0x54, 0xf5, 0xff, 0xff, 0x5d, 0x01, 0x00, 0x00, 0x78, 0x6c, 0x61, 0x5f,
  0x63, 0x6f, 0x6d, 0x70, 0x75, 0x74, 0x61, 0x74, 0x69, 0x6f, 0x6e, 0x28,
  0x6a, 0x61, 0x78, 0x5f, 0x73, 0x63, 0x6f, 0x72, 0x65, 0x29, 0x2f, 0x6a,
  0x69, 0x74, 0x28, 0x6d, 0x61, 0x69, 0x6e, 0x29, 0x2f, 0x6d, 0x75, 0x6c,
  0x3b, 0x3b, 0x78, 0x6c, 0x61, 0x5f, 0x63, 0x6f, 0x6d, 0x70, 0x75, 0x74,
  0x61, 0x74, 0x69, 0x6f, 0x6e, 0x28, 0x6a, 0x61, 0x78, 0x5f, 0x73, 0x63,
  0x6f, 0x72, 0x65, 0x29, 0x2f, 0x6a, 0x69, 0x74, 0x28, 0x6d, 0x61, 0x69,
  0x6e, 0x29, 0x2f, 0x76, 0x6d, 0x61, 0x70, 0x28, 0x6a, 0x2c, 0x69, 0x6a,
  0x6b, 0x2d, 0x3e, 0x69, 0x6b, 0x29, 0x2f, 0x6a, 0x69, 0x74, 0x28, 0x5f,
  0x65, 0x69, 0x6e, 0x73, 0x75, 0x6d, 0x29, 0x2f, 0x64, 0x6f, 0x74, 0x5f,
  0x67, 0x65, 0x6e, 0x65, 0x72, 0x61, 0x6c, 0x5b, 0x64, 0x69, 0x6d, 0x65,
  0x6e, 0x73, 0x69, 0x6f, 0x6e, 0x5f, 0x6e, 0x75, 0x6d, 0x62, 0x65, 0x72,
  0x73, 0x3d, 0x28, 0x28, 0x28, 0x31, 0x2c, 0x29, 0x2c, 0x20, 0x28, 0x31,
  0x2c, 0x29, 0x29, 0x2c, 0x20, 0x28, 0x28, 0x29, 0x2c, 0x20, 0x28, 0x29,
  0x29, 0x29, 0x20, 0x70, 0x72, 0x65, 0x63, 0x69, 0x73, 0x69, 0x6f, 0x6e,
  0x3d, 0x4e, 0x6f, 0x6e, 0x65, 0x20, 0x70, 0x72, 0x65, 0x66, 0x65, 0x72,
  0x72, 0x65, 0x64, 0x5f, 0x65, 0x6c, 0x65, 0x6d, 0x65, 0x6e, 0x74, 0x5f,
  0x74, 0x79, 0x70, 0x65, 0x3d, 0x4e, 0x6f, 0x6e, 0x65, 0x5d, 0x3b, 0x3b,
  0x78, 0x6c, 0x61, 0x5f, 0x63, 0x6f, 0x6d, 0x70, 0x75, 0x74, 0x61, 0x74,
  0x69, 0x6f, 0x6e, 0x28, 0x6a, 0x61, 0x78, 0x5f, 0x73, 0x63, 0x6f, 0x72,
  0x65, 0x29, 0x2f, 0x6a, 0x69, 0x74, 0x28, 0x6d, 0x61, 0x69, 0x6e, 0x29,
  0x2f, 0x73, 0x75, 0x62, 0x3b, 0x3b, 0x78, 0x6c, 0x61, 0x5f, 0x63, 0x6f,
  0x6d, 0x70, 0x75, 0x74, 0x61, 0x74, 0x69, 0x6f, 0x6e, 0x28, 0x6a, 0x61,
  0x78, 0x5f, 0x73, 0x63, 0x6f, 0x72, 0x65, 0x29, 0x2f, 0x6a, 0x69, 0x74,
  0x28, 0x6d, 0x61, 0x69, 0x6e, 0x29, 0x2f, 0x62, 0x72, 0x6f, 0x61, 0x64,
  0x63, 0x61, 0x73, 0x74, 0x5f, 0x69, 0x6e, 0x5f, 0x64, 0x69, 0x6d, 0x5b,
  0x73, 0x68, 0x61, 0x70, 0x65, 0x3d, 0x28, 0x31, 0x2c, 0x20, 0x31, 0x36,
  0x2c, 0x20, 0x35, 0x29, 0x20, 0x62, 0x72, 0x6f, 0x61, 0x64, 0x63, 0x61,
  0x73, 0x74, 0x5f, 0x64, 0x69, 0x6d, 0x65, 0x6e, 0x73, 0x69, 0x6f, 0x6e,
  0x73, 0x3d, 0x28, 0x31, 0x2c, 0x20, 0x32, 0x29, 0x5d, 0x00, 0x00, 0x00,
  0x02, 0x00, 0x00, 0x00, 0x01, 0x00, 0x00, 0x00, 0x50, 0x00, 0x00, 0x00,
  0x7e, 0xf7, 0xff, 0xff, 0x00, 0x00, 0x00, 0x01, 0x10, 0x00, 0x00, 0x00,
  0x10, 0x00, 0x00, 0x00, 0x0f, 0x00, 0x00, 0x00, 0x44, 0x01, 0x00, 0x00,
  0xe0, 0xf6, 0xff, 0xff, 0x34, 0x01, 0x00, 0x00, 0x78, 0x6c, 0x61, 0x5f,
  0x63, 0x6f, 0x6d, 0x70, 0x75, 0x74, 0x61, 0x74, 0x69, 0x6f, 0x6e, 0x28,
  0x6a, 0x61, 0x78, 0x5f, 0x73, 0x63, 0x6f, 0x72, 0x65, 0x29, 0x2f, 0x6a,
  0x69, 0x74, 0x28, 0x6d, 0x61, 0x69, 0x6e, 0x29, 0x2f, 0x73, 0x75, 0x62,
  0x3b, 0x3b, 0x78, 0x6c, 0x61, 0x5f, 0x63, 0x6f, 0x6d, 0x70, 0x75, 0x74,
  0x61, 0x74, 0x69, 0x6f, 0x6e, 0x28, 0x6a, 0x61, 0x78, 0x5f, 0x73, 0x63,
  0x6f, 0x72, 0x65, 0x29, 0x2f, 0x6a, 0x69, 0x74, 0x28, 0x6d, 0x61, 0x69,
  0x6e, 0x29, 0x2f, 0x76, 0x6d, 0x61, 0x70, 0x28, 0x6a, 0x2c, 0x69, 0x6a,
  0x6b, 0x2d, 0x3e, 0x69, 0x6b, 0x29, 0x2f, 0x6a, 0x69, 0x74, 0x28, 0x5f,
  0x65, 0x69, 0x6e, 0x73, 0x75, 0x6d, 0x29, 0x2f, 0x64, 0x6f, 0x74, 0x5f,
  0x67, 0x65, 0x6e, 0x65, 0x72, 0x61, 0x6c, 0x5b, 0x64, 0x69, 0x6d, 0x65,
  0x6e, 0x73, 0x69, 0x6f, 0x6e, 0x5f, 0x6e, 0x75, 0x6d, 0x62, 0x65, 0x72,
  0x73, 0x3d, 0x28, 0x28, 0x28, 0x31, 0x2c, 0x29, 0x2c, 0x20, 0x28, 0x31,
  0x2c, 0x29, 0x29, 0x2c, 0x20, 0x28, 0x28, 0x29, 0x2c, 0x20, 0x28, 0x29,
  0x29, 0x29, 0x20, 0x70, 0x72, 0x65, 0x63, 0x69, 0x73, 0x69, 0x6f, 0x6e,
  0x3d, 0x4e, 0x6f, 0x6e, 0x65, 0x20, 0x70, 0x72, 0x65, 0x66, 0x65, 0x72,
  0x72, 0x65, 0x64, 0x5f, 0x65, 0x6c, 0x65, 0x6d, 0x65, 0x6e, 0x74, 0x5f,
  0x74, 0x79, 0x70, 0x65, 0x3d, 0x4e, 0x6f, 0x6e, 0x65, 0x5d, 0x3b, 0x3b,
  0x78, 0x6c, 0x61, 0x5f, 0x63, 0x6f, 0x6d, 0x70, 0x75, 0x74, 0x61, 0x74,
  0x69, 0x6f, 0x6e, 0x28, 0x6a, 0x61, 0x78, 0x5f, 0x73, 0x63, 0x6f, 0x72,
  0x65, 0x29, 0x2f, 0x6a, 0x69, 0x74, 0x28, 0x6d, 0x61, 0x69, 0x6e, 0x29,
  0x2f, 0x62, 0x72, 0x6f, 0x61, 0x64, 0x63, 0x61, 0x73, 0x74, 0x5f, 0x69,
  0x6e, 0x5f, 0x64, 0x69, 0x6d, 0x5b, 0x73, 0x68, 0x61, 0x70, 0x65, 0x3d,
  0x28, 0x31, 0x2c, 0x20, 0x31, 0x36, 0x2c, 0x20, 0x35, 0x29, 0x20, 0x62,
  0x72, 0x6f, 0x61, 0x64, 0x63, 0x61, 0x73, 0x74, 0x5f, 0x64, 0x69, 0x6d,
  0x65, 0x6e, 0x73, 0x69, 0x6f, 0x6e, 0x73, 0x3d, 0x28, 0x31, 0x2c, 0x20,
  0x32, 0x29, 0x5d, 0x31, 0x00, 0x00, 0x00, 0x00, 0x02, 0x00, 0x00, 0x00,
  0x01, 0x00, 0x00, 0x00, 0x50, 0x00, 0x00, 0x00, 0xe2, 0xf8, 0xff, 0xff,
  0x00, 0x00, 0x00, 0x01, 0x10, 0x00, 0x00, 0x00, 0x10, 0x00, 0x00, 0x00,
  0x0e, 0x00, 0x00, 0x00, 0xb4, 0x00, 0x00, 0x00, 0x44, 0xf8, 0xff, 0xff,
  0xa6, 0x00, 0x00, 0x00, 0x78, 0x6c, 0x61, 0x5f, 0x63, 0x6f, 0x6d, 0x70,
  0x75, 0x74, 0x61, 0x74, 0x69, 0x6f, 0x6e, 0x28, 0x6a, 0x61, 0x78, 0x5f,
  0x73, 0x63, 0x6f, 0x72, 0x65, 0x29, 0x2f, 0x6a, 0x69, 0x74, 0x28, 0x6d,
  0x61, 0x69, 0x6e, 0x29, 0x2f, 0x76, 0x6d, 0x61, 0x70, 0x28, 0x6a, 0x2c,
  0x69, 0x6a, 0x6b, 0x2d, 0x3e, 0x69, 0x6b, 0x29, 0x2f, 0x6a, 0x69, 0x74,
  0x28, 0x5f, 0x65, 0x69, 0x6e, 0x73, 0x75, 0x6d, 0x29, 0x2f, 0x64, 0x6f,
  0x74, 0x5f, 0x67, 0x65, 0x6e, 0x65, 0x72, 0x61, 0x6c, 0x5b, 0x64, 0x69,
  0x6d, 0x65, 0x6e, 0x73, 0x69, 0x6f, 0x6e, 0x5f, 0x6e, 0x75, 0x6d, 0x62,
  0x65, 0x72, 0x73, 0x3d, 0x28, 0x28, 0x28, 0x31, 0x2c, 0x29, 0x2c, 0x20,
  0x28, 0x31, 0x2c, 0x29, 0x29, 0x2c, 0x20, 0x28, 0x28, 0x29, 0x2c, 0x20,
  0x28, 0x29, 0x29, 0x29, 0x20, 0x70, 0x72, 0x65, 0x63, 0x69, 0x73, 0x69,
  0x6f, 0x6e, 0x3d, 0x4e, 0x6f, 0x6e, 0x65, 0x20, 0x70, 0x72, 0x65, 0x66,
  0x65, 0x72, 0x72, 0x65, 0x64, 0x5f, 0x65, 0x6c, 0x65, 0x6d, 0x65, 0x6e,
  0x74, 0x5f, 0x74, 0x79, 0x70, 0x65, 0x3d, 0x4e, 0x6f, 0x6e, 0x65, 0x5d,
  0x3b, 0x33, 0x00, 0x00, 0x02, 0x00, 0x00, 0x00, 0x01, 0x00, 0x00, 0x00,
  0x50, 0x00, 0x00, 0x00, 0xb6, 0xf9, 0xff, 0xff, 0x00, 0x00, 0x00, 0x01,
  0x10, 0x00, 0x00, 0x00, 0x10, 0x00, 0x00, 0x00, 0x0d, 0x00, 0x00, 0x00,
  0x18, 0x00, 0x00, 0x00, 0x18, 0xf9, 0xff, 0xff, 0x0a, 0x00, 0x00, 0x00,
  0x63, 0x6f, 0x6e, 0x73, 0x74, 0x61, 0x6e, 0x74, 0x2e, 0x33, 0x00, 0x00,
  0x02, 0x00, 0x00, 0x00, 0x01, 0x00, 0x00, 0x00, 0x01, 0x00, 0x00, 0x00,
  0xee, 0xf9, 0xff, 0xff, 0x00, 0x00, 0x00, 0x01, 0x10, 0x00, 0x00, 0x00,
  0x10, 0x00, 0x00, 0x00, 0x0c, 0x00, 0x00, 0x00, 0x18, 0x00, 0x00, 0x00,
  0x50, 0xf9, 0xff, 0xff, 0x0a, 0x00, 0x00, 0x00, 0x63, 0x6f, 0x6e, 0x73,
  0x74, 0x61, 0x6e, 0x74, 0x2e, 0x32, 0x00, 0x00, 0x02, 0x00, 0x00, 0x00,
  0x01, 0x00, 0x00, 0x00, 0x01, 0x00, 0x00, 0x00, 0x26, 0xfa, 0xff, 0xff,
  0x00, 0x00, 0x00, 0x01, 0x10, 0x00, 0x00, 0x00, 0x10, 0x00, 0x00, 0x00,
  0x0b, 0x00, 0x00, 0x00, 0x18, 0x00, 0x00, 0x00, 0x88, 0xf9, 0xff, 0xff,
  0x0b, 0x00, 0x00, 0x00, 0x62, 0x72, 0x6f, 0x61, 0x64, 0x63, 0x61, 0x73,
  0x74, 0x2e, 0x38, 0x00, 0x02, 0x00, 0x00, 0x00, 0x01, 0x00, 0x00, 0x00,
  0x10, 0x00, 0x00, 0x00, 0x5e, 0xfa, 0xff, 0xff, 0x00, 0x00, 0x00, 0x01,
  0x10, 0x00, 0x00, 0x00, 0x10, 0x00, 0x00, 0x00, 0x0a, 0x00, 0x00, 0x00,
  0x18, 0x00, 0x00, 0x00, 0xc0, 0xf9, 0xff, 0xff, 0x0b, 0x00, 0x00, 0x00,
  0x62, 0x72, 0x6f, 0x61, 0x64, 0x63, 0x61, 0x73, 0x74, 0x2e, 0x36, 0x00,
  0x02, 0x00, 0x00, 0x00, 0x01, 0x00, 0x00, 0x00, 0x10, 0x00, 0x00, 0x00,
  0x96, 0xfa, 0xff, 0xff, 0x00, 0x00, 0x00, 0x01, 0x10, 0x00, 0x00, 0x00,
  0x10, 0x00, 0x00, 0x00, 0x09, 0x00, 0x00, 0x00, 0x38, 0x00, 0x00, 0x00,
  0xf8, 0xf9, 0xff, 0xff, 0x2a, 0x00, 0x00, 0x00, 0x78, 0x6c, 0x61, 0x5f,
  0x63, 0x6f, 0x6d, 0x70, 0x75, 0x74, 0x61, 0x74, 0x69, 0x6f, 0x6e, 0x28,
  0x6a, 0x61, 0x78, 0x5f, 0x73, 0x63, 0x6f, 0x72, 0x65, 0x29, 0x2f, 0x6a,
  0x69, 0x74, 0x28, 0x6d, 0x61, 0x69, 0x6e, 0x29, 0x2f, 0x73, 0x75, 0x62,
  0x3b, 0x31, 0x00, 0x00, 0x02, 0x00, 0x00, 0x00, 0x01, 0x00, 0x00, 0x00,
  0x10, 0x00, 0x00, 0x00, 0x00, 0x00, 0x0e, 0x00, 0x14, 0x00, 0x10, 0x00,
  0x00, 0x00, 0x0c, 0x00, 0x08, 0x00, 0x04, 0x00, 0x0e, 0x00, 0x00, 0x00,
  0x10, 0x00, 0x00, 0x00, 0x10, 0x00, 0x00, 0x00, 0x08, 0x00, 0x00, 0x00,
  0xb4, 0x00, 0x00, 0x00, 0x5c, 0xfa, 0xff, 0xff, 0xa6, 0x00, 0x00, 0x00,
  0x78, 0x6c, 0x61, 0x5f, 0x63, 0x6f, 0x6d, 0x70, 0x75, 0x74, 0x61, 0x74,
  0x69, 0x6f, 0x6e, 0x28, 0x6a, 0x61, 0x78, 0x5f, 0x73, 0x63, 0x6f, 0x72,
  0x65, 0x29, 0x2f, 0x6a, 0x69, 0x74, 0x28, 0x6d, 0x61, 0x69, 0x6e, 0x29,
  0x2f, 0x76, 0x6d, 0x61, 0x70, 0x28, 0x6a, 0x2c, 0x69, 0x6a, 0x6b, 0x2d,
  0x3e, 0x69, 0x6b, 0x29, 0x2f, 0x6a, 0x69, 0x74, 0x28, 0x5f, 0x65, 0x69,
  0x6e, 0x73, 0x75, 0x6d, 0x29, 0x2f, 0x64, 0x6f, 0x74, 0x5f, 0x67, 0x65,
  0x6e, 0x65, 0x72, 0x61, 0x6c, 0x5b, 0x64, 0x69, 0x6d, 0x65, 0x6e, 0x73,
  0x69, 0x6f, 0x6e, 0x5f, 0x6e, 0x75, 0x6d, 0x62, 0x65, 0x72, 0x73, 0x3d,
  0x28, 0x28, 0x28, 0x31, 0x2c, 0x29, 0x2c, 0x20, 0x28, 0x31, 0x2c, 0x29,
  0x29, 0x2c, 0x20, 0x28, 0x28, 0x29, 0x2c, 0x20, 0x28, 0x29, 0x29, 0x29,
  0x20, 0x70, 0x72, 0x65, 0x63, 0x69, 0x73, 0x69, 0x6f, 0x6e, 0x3d, 0x4e,
  0x6f, 0x6e, 0x65, 0x20, 0x70, 0x72, 0x65, 0x66, 0x65, 0x72, 0x72, 0x65,
  0x64, 0x5f, 0x65, 0x6c, 0x65, 0x6d, 0x65, 0x6e, 0x74, 0x5f, 0x74, 0x79,
  0x70, 0x65, 0x3d, 0x4e, 0x6f, 0x6e, 0x65, 0x5d, 0x3b, 0x31, 0x00, 0x00,
  0x02, 0x00, 0x00, 0x00, 0x50, 0x00, 0x00, 0x00, 0x05, 0x00, 0x00, 0x00,
  0x5a, 0xfe, 0xff, 0xff, 0x00, 0x00, 0x00, 0x01, 0x14, 0x00, 0x00, 0x00,
  0x14, 0x00, 0x00, 0x00, 0x07, 0x00, 0x00, 0x00, 0x00, 0x00, 0x00, 0x02,
  0xb4, 0x00, 0x00, 0x00, 0x34, 0xfb, 0xff, 0xff, 0xa5, 0x00, 0x00, 0x00,
  0x78, 0x6c, 0x61, 0x5f, 0x63, 0x6f, 0x6d, 0x70, 0x75, 0x74, 0x61, 0x74,
  0x69, 0x6f, 0x6e, 0x28, 0x6a, 0x61, 0x78, 0x5f, 0x73, 0x63, 0x6f, 0x72,
  0x65, 0x29, 0x2f, 0x6a, 0x69, 0x74, 0x28, 0x6d, 0x61, 0x69, 0x6e, 0x29,
  0x2f, 0x76, 0x6d, 0x61, 0x70, 0x28, 0x6a, 0x2c, 0x69, 0x6a, 0x6b, 0x2d,
  0x3e, 0x69, 0x6b, 0x29, 0x2f, 0x6a, 0x69, 0x74, 0x28, 0x5f, 0x65, 0x69,
  0x6e, 0x73, 0x75, 0x6d, 0x29, 0x2f, 0x64, 0x6f, 0x74, 0x5f, 0x67, 0x65,
  0x6e, 0x65, 0x72, 0x61, 0x6c, 0x5b, 0x64, 0x69, 0x6d, 0x65, 0x6e, 0x73,
  0x69, 0x6f, 0x6e, 0x5f, 0x6e, 0x75, 0x6d, 0x62, 0x65, 0x72, 0x73, 0x3d,
  0x28, 0x28, 0x28, 0x31, 0x2c, 0x29, 0x2c, 0x20, 0x28, 0x31, 0x2c, 0x29,
  0x29, 0x2c, 0x20, 0x28, 0x28, 0x29, 0x2c, 0x20, 0x28, 0x29, 0x29, 0x29,
  0x20, 0x70, 0x72, 0x65, 0x63, 0x69, 0x73, 0x69, 0x6f, 0x6e, 0x3d, 0x4e,
  0x6f, 0x6e, 0x65, 0x20, 0x70, 0x72, 0x65, 0x66, 0x65, 0x72, 0x72, 0x65,
  0x64, 0x5f, 0x65, 0x6c, 0x65, 0x6d, 0x65, 0x6e, 0x74, 0x5f, 0x74, 0x79,
  0x70, 0x65, 0x3d, 0x4e, 0x6f, 0x6e, 0x65, 0x5d, 0x3b, 0x00, 0x00, 0x00,
  0x01, 0x00, 0x00, 0x00, 0x03, 0x00, 0x00, 0x00, 0x2e, 0xff, 0xff, 0xff,
  0x00, 0x00, 0x00, 0x01, 0x14, 0x00, 0x00, 0x00, 0x14, 0x00, 0x00, 0x00,
  0x06, 0x00, 0x00, 0x00, 0x00, 0x00, 0x00, 0x02, 0x48, 0x00, 0x00, 0x00,
  0x08, 0xfc, 0xff, 0xff, 0x3b, 0x00, 0x00, 0x00, 0x78, 0x6c, 0x61, 0x5f,
  0x63, 0x6f, 0x6d, 0x70, 0x75, 0x74, 0x61, 0x74, 0x69, 0x6f, 0x6e, 0x28,
  0x6a, 0x61, 0x78, 0x5f, 0x73, 0x63, 0x6f, 0x72, 0x65, 0x29, 0x2f, 0x6a,
  0x69, 0x74, 0x28, 0x6d, 0x61, 0x69, 0x6e, 0x29, 0x2f, 0x72, 0x65, 0x64,
  0x75, 0x63, 0x65, 0x5f, 0x73, 0x75, 0x6d, 0x5b, 0x61, 0x78, 0x65, 0x73,
  0x3d, 0x28, 0x32, 0x2c, 0x29, 0x5d, 0x3b, 0x00, 0x01, 0x00, 0x00, 0x00,
  0x01, 0x00, 0x00, 0x00, 0x96, 0xff, 0xff, 0xff, 0x00, 0x00, 0x00, 0x01,
  0x14, 0x00, 0x00, 0x00, 0x14, 0x00, 0x00, 0x00, 0x05, 0x00, 0x00, 0x00,
  0x00, 0x00, 0x00, 0x02, 0x48, 0x00, 0x00, 0x00, 0x70, 0xfc, 0xff, 0xff,
  0x3b, 0x00, 0x00, 0x00, 0x78, 0x6c, 0x61, 0x5f, 0x63, 0x6f, 0x6d, 0x70,
  0x75, 0x74, 0x61, 0x74, 0x69, 0x6f, 0x6e, 0x28, 0x6a, 0x61, 0x78, 0x5f,
  0x73, 0x63, 0x6f, 0x72, 0x65, 0x29, 0x2f, 0x6a, 0x69, 0x74, 0x28, 0x6d,
  0x61, 0x69, 0x6e, 0x29, 0x2f, 0x72, 0x65, 0x64, 0x75, 0x63, 0x65, 0x5f,
  0x6d, 0x61, 0x78, 0x5b, 0x61, 0x78, 0x65, 0x73, 0x3d, 0x28, 0x31, 0x2c,
  0x29, 0x5d, 0x3b, 0x00, 0x01, 0x00, 0x00, 0x00, 0x01, 0x00, 0x00, 0x00,
  0x00, 0x00, 0x16, 0x00, 0x1c, 0x00, 0x18, 0x00, 0x17, 0x00, 0x10, 0x00,
  0x0c, 0x00, 0x08, 0x00, 0x00, 0x00, 0x00, 0x00, 0x00, 0x00, 0x07, 0x00,
  0x16, 0x00, 0x00, 0x00, 0x00, 0x00, 0x00, 0x01, 0x14, 0x00, 0x00, 0x00,
  0x14, 0x00, 0x00, 0x00, 0x04, 0x00, 0x00, 0x00, 0x00, 0x00, 0x00, 0x02,
  0x38, 0x00, 0x00, 0x00, 0xf0, 0xfc, 0xff, 0xff, 0x29, 0x00, 0x00, 0x00,
  0x78, 0x6c, 0x61, 0x5f, 0x63, 0x6f, 0x6d, 0x70, 0x75, 0x74, 0x61, 0x74,
  0x69, 0x6f, 0x6e, 0x28, 0x6a, 0x61, 0x78, 0x5f, 0x73, 0x63, 0x6f, 0x72,
  0x65, 0x29, 0x2f, 0x6a, 0x69, 0x74, 0x28, 0x6d, 0x61, 0x69, 0x6e, 0x29,
  0x2f, 0x73, 0x75, 0x62, 0x3b, 0x00, 0x00, 0x00, 0x01, 0x00, 0x00, 0x00,
  0x02, 0x00, 0x00, 0x00, 0xe2, 0xfd, 0xff, 0xff, 0x00, 0x00, 0x00, 0x01,
  0x10, 0x00, 0x00, 0x00, 0x10, 0x00, 0x00, 0x00, 0x03, 0x00, 0x00, 0x00,
  0xa0, 0x00, 0x00, 0x00, 0x44, 0xfd, 0xff, 0xff, 0x93, 0x00, 0x00, 0x00,
  0x78, 0x6c, 0x61, 0x5f, 0x63, 0x6f, 0x6d, 0x70, 0x75, 0x74, 0x61, 0x74,
  0x69, 0x6f, 0x6e, 0x28, 0x6a, 0x61, 0x78, 0x5f, 0x73, 0x63, 0x6f, 0x72,
  0x65, 0x29, 0x2f, 0x6a, 0x69, 0x74, 0x28, 0x6d, 0x61, 0x69, 0x6e, 0x29,
  0x2f, 0x61, 0x64, 0x64, 0x3b, 0x3b, 0x78, 0x6c, 0x61, 0x5f, 0x63, 0x6f,
  0x6d, 0x70, 0x75, 0x74, 0x61, 0x74, 0x69, 0x6f, 0x6e, 0x28, 0x6a, 0x61,
  0x78, 0x5f, 0x73, 0x63, 0x6f, 0x72, 0x65, 0x29, 0x2f, 0x6a, 0x69, 0x74,
  0x28, 0x6d, 0x61, 0x69, 0x6e, 0x29, 0x2f, 0x62, 0x72, 0x6f, 0x61, 0x64,
  0x63, 0x61, 0x73, 0x74, 0x5f, 0x69, 0x6e, 0x5f, 0x64, 0x69, 0x6d, 0x5b,
  0x73, 0x68, 0x61, 0x70, 0x65, 0x3d, 0x28, 0x31, 0x2c, 0x20, 0x31, 0x36,
  0x29, 0x20, 0x62, 0x72, 0x6f, 0x61, 0x64, 0x63, 0x61, 0x73, 0x74, 0x5f,
  0x64, 0x69, 0x6d, 0x65, 0x6e, 0x73, 0x69, 0x6f, 0x6e, 0x73, 0x3d, 0x28,
  0x31, 0x2c, 0x29, 0x5d, 0x3b, 0x63, 0x6f, 0x6e, 0x73, 0x74, 0x61, 0x6e,
  0x74, 0x2e, 0x34, 0x00, 0x02, 0x00, 0x00, 0x00, 0x01, 0x00, 0x00, 0x00,
  0x10, 0x00, 0x00, 0x00, 0xa2, 0xfe, 0xff, 0xff, 0x00, 0x00, 0x00, 0x01,
  0x10, 0x00, 0x00, 0x00, 0x10, 0x00, 0x00, 0x00, 0x02, 0x00, 0x00, 0x00,
  0x40, 0x01, 0x00, 0x00, 0x04, 0xfe, 0xff, 0xff, 0x33, 0x01, 0x00, 0x00,
  0x78, 0x6c, 0x61, 0x5f, 0x63, 0x6f, 0x6d, 0x70, 0x75, 0x74, 0x61, 0x74,
  0x69, 0x6f, 0x6e, 0x28, 0x6a, 0x61, 0x78, 0x5f, 0x73, 0x63, 0x6f, 0x72,
  0x65, 0x29, 0x2f, 0x6a, 0x69, 0x74, 0x28, 0x6d, 0x61, 0x69, 0x6e, 0x29,
  0x2f, 0x73, 0x75, 0x62, 0x3b, 0x3b, 0x78, 0x6c, 0x61, 0x5f, 0x63, 0x6f,
  0x6d, 0x70, 0x75, 0x74, 0x61, 0x74, 0x69, 0x6f, 0x6e, 0x28, 0x6a, 0x61,
  0x78, 0x5f, 0x73, 0x63, 0x6f, 0x72, 0x65, 0x29, 0x2f, 0x6a, 0x69, 0x74,
  0x28, 0x6d, 0x61, 0x69, 0x6e, 0x29, 0x2f, 0x76, 0x6d, 0x61, 0x70, 0x28,
  0x6a, 0x2c, 0x69, 0x6a, 0x6b, 0x2d, 0x3e, 0x69, 0x6b, 0x29, 0x2f, 0x6a,
  0x69, 0x74, 0x28, 0x5f, 0x65, 0x69, 0x6e, 0x73, 0x75, 0x6d, 0x29, 0x2f,
  0x64, 0x6f, 0x74, 0x5f, 0x67, 0x65, 0x6e, 0x65, 0x72, 0x61, 0x6c, 0x5b,
  0x64, 0x69, 0x6d, 0x65, 0x6e, 0x73, 0x69, 0x6f, 0x6e, 0x5f, 0x6e, 0x75,
  0x6d, 0x62, 0x65, 0x72, 0x73, 0x3d, 0x28, 0x28, 0x28, 0x31, 0x2c, 0x29,
  0x2c, 0x20, 0x28, 0x31, 0x2c, 0x29, 0x29, 0x2c, 0x20, 0x28, 0x28, 0x29,
  0x2c, 0x20, 0x28, 0x29, 0x29, 0x29, 0x20, 0x70, 0x72, 0x65, 0x63, 0x69,
  0x73, 0x69, 0x6f, 0x6e, 0x3d, 0x4e, 0x6f, 0x6e, 0x65, 0x20, 0x70, 0x72,
  0x65, 0x66, 0x65, 0x72, 0x72, 0x65, 0x64, 0x5f, 0x65, 0x6c, 0x65, 0x6d,
  0x65, 0x6e, 0x74, 0x5f, 0x74, 0x79, 0x70, 0x65, 0x3d, 0x4e, 0x6f, 0x6e,
  0x65, 0x5d, 0x3b, 0x3b, 0x78, 0x6c, 0x61, 0x5f, 0x63, 0x6f, 0x6d, 0x70,
  0x75, 0x74, 0x61, 0x74, 0x69, 0x6f, 0x6e, 0x28, 0x6a, 0x61, 0x78, 0x5f,
  0x73, 0x63, 0x6f, 0x72, 0x65, 0x29, 0x2f, 0x6a, 0x69, 0x74, 0x28, 0x6d,
  0x61, 0x69, 0x6e, 0x29, 0x2f, 0x62, 0x72, 0x6f, 0x61, 0x64, 0x63, 0x61,
  0x73, 0x74, 0x5f, 0x69, 0x6e, 0x5f, 0x64, 0x69, 0x6d, 0x5b, 0x73, 0x68,
  0x61, 0x70, 0x65, 0x3d, 0x28, 0x31, 0x2c, 0x20, 0x31, 0x36, 0x2c, 0x20,
  0x35, 0x29, 0x20, 0x62, 0x72, 0x6f, 0x61, 0x64, 0x63, 0x61, 0x73, 0x74,
  0x5f, 0x64, 0x69, 0x6d, 0x65, 0x6e, 0x73, 0x69, 0x6f, 0x6e, 0x73, 0x3d,
  0x28, 0x31, 0x2c, 0x20, 0x32, 0x29, 0x5d, 0x00, 0x01, 0x00, 0x00, 0x00,
  0x50, 0x00, 0x00, 0x00, 0x00, 0x00, 0x16, 0x00, 0x18, 0x00, 0x14, 0x00,
  0x00, 0x00, 0x10, 0x00, 0x0c, 0x00, 0x08, 0x00, 0x00, 0x00, 0x00, 0x00,
  0x00, 0x00, 0x07, 0x00, 0x16, 0x00, 0x00, 0x00, 0x00, 0x00, 0x00, 0x01,
  0x10, 0x00, 0x00, 0x00, 0x10, 0x00, 0x00, 0x00, 0x01, 0x00, 0x00, 0x00,
  0x14, 0x00, 0x00, 0x00, 0x78, 0xff, 0xff, 0xff, 0x04, 0x00, 0x00, 0x00,
  0x61, 0x72, 0x67, 0x30, 0x00, 0x00, 0x00, 0x00, 0x02, 0x00, 0x00, 0x00,
  0x01, 0x00, 0x00, 0x00, 0x05, 0x00, 0x00, 0x00, 0x0b, 0x00, 0x00, 0x00,
  0xac, 0x00, 0x00, 0x00, 0x90, 0x00, 0x00, 0x00, 0x80, 0x00, 0x00, 0x00,
  0x70, 0x00, 0x00, 0x00, 0x60, 0x00, 0x00, 0x00, 0x58, 0x00, 0x00, 0x00,
  0x44, 0x00, 0x00, 0x00, 0x34, 0x00, 0x00, 0x00, 0x24, 0x00, 0x00, 0x00,
  0x14, 0x00, 0x00, 0x00, 0x04, 0x00, 0x00, 0x00, 0x8c, 0xff, 0xff, 0xff,
  0x65, 0x00, 0x00, 0x00, 0x00, 0x00, 0x00, 0x65, 0x98, 0xff, 0xff, 0xff,
  0x2a, 0x00, 0x00, 0x00, 0x00, 0x00, 0x00, 0x2a, 0xa4, 0xff, 0xff, 0xff,
  0x49, 0x00, 0x00, 0x00, 0x00, 0x00, 0x00, 0x49, 0xb0, 0xff, 0xff, 0xff,
  0x2f, 0x00, 0x00, 0x00, 0x00, 0x00, 0x00, 0x2f, 0xbc, 0xff, 0xff, 0xff,
  0x52, 0x00, 0x00, 0x00, 0x00, 0x00, 0x00, 0x52, 0x04, 0x00, 0x04, 0x00,
  0x04, 0x00, 0x00, 0x00, 0xd0, 0xff, 0xff, 0xff, 0x4a, 0x00, 0x00, 0x00,
  0x00, 0x00, 0x00, 0x4a, 0xdc, 0xff, 0xff, 0xff, 0x16, 0x00, 0x00, 0x00,
  0x00, 0x00, 0x00, 0x16, 0xe8, 0xff, 0xff, 0xff, 0x12, 0x00, 0x00, 0x00,
  0x00, 0x00, 0x00, 0x12, 0xf4, 0xff, 0xff, 0xff, 0x29, 0x00, 0x00, 0x00,
  0x00, 0x00, 0x00, 0x29, 0x0c, 0x00, 0x0c, 0x00, 0x0b, 0x00, 0x00, 0x00,
  0x00, 0x00, 0x04, 0x00, 0x0c, 0x00, 0x00, 0x00, 0x09, 0x00, 0x00, 0x00,
  0x00, 0x00, 0x00, 0x09
};
unsigned int tflite_anomaly_36_len = 8980;

#endif // _EI_CLASSIFIER_TFLITE_ANOMALY_36_H_

